{
  "version": "1.0",
  "truncation": {
    "direction": "Right",
    "max_length": 200,
    "strategy": "LongestFirst",
    "stride": 0
  },
  "padding": {
    "strategy": {
      "Fixed": 200
    },
    "direction": "Right",
    "pad_to_multiple_of": null,
    "pad_id": 0,
    "pad_type_id": 0,
    "pad_token": "[PAD]"
  },
  "added_tokens": [
    {
      "id": 0,
      "content": "[PAD]",
      "single_word": false,
      "lstrip": false,
      "rstrip": false,
      "normalized": false,
      "special": true
    },
    {
      "id": 1,
      "content": "[UNK]",
      "single_word": false,
      "lstrip": false,
      "rstrip": false,
      "normalized": false,
      "special": true
    },
    {
      "id": 2,
      "content": "[CLS]",
      "single_word": false,
      "lstrip": false,
      "rstrip": false,
      "normalized": false,
      "special": true
    },
    {
      "id": 3,
      "content": "[SEP]",
      "single_word": false,
      "lstrip": false,
      "rstrip": false,
      "normalized": false,
      "special": true
    },
    {
      "id": 4,
      "content": "[MASK]",
      "single_word": false,
      "lstrip": false,
      "rstrip": false,
      "normalized": false,
      "special": true
    }
  ],
  "normalizer": {
    "type": "BertNormalizer",
    "clean_text": true,
    "handle_chinese_chars": true,
    "strip_accents": null,
    "lowercase": false
  },
  "pre_tokenizer": {
    "type": "BertPreTokenizer"
  },
  "post_processor": {
    "type": "TemplateProcessing",
    "single": [
      {
        "SpecialToken": {
          "id": "[CLS]",
          "type_id": 0
        }
      },
      {
        "Sequence": {
          "id": "A",
          "type_id": 0
        }
      },
      {
        "SpecialToken": {
          "id": "[SEP]",
          "type_id": 0
        }
      }
    ],
    "pair": [
      {
        "SpecialToken": {
          "id": "[CLS]",
          "type_id": 0
        }
      },
      {
        "Sequence": {
          "id": "A",
          "type_id": 0
        }
      },
      {
        "SpecialToken": {
          "id": "[SEP]",
          "type_id": 0
        }
      },
      {
        "Sequence": {
          "id": "B",
          "type_id": 1
        }
      },
      {
        "SpecialToken": {
          "id": "[SEP]",
          "type_id": 1
        }
      }
    ],
    "special_tokens": {
      "[CLS]": {
        "id": "[CLS]",
        "ids": [
          2
        ],
        "tokens": [
          "[CLS]"
        ]
      },
      "[SEP]": {
        "id": "[SEP]",
        "ids": [
          3
        ],
        "tokens": [
          "[SEP]"
        ]
      }
    }
  },
  "decoder": {
    "type": "WordPiece",
    "prefix": "##",
    "cleanup": true
  },
  "model": {
    "type": "WordPiece",
    "unk_token": "[UNK]",
    "continuing_subword_prefix": "##",
    "max_input_chars_per_word": 100,
    "vocab": {
      "[PAD]": 0,
      "[UNK]": 1,
      "[CLS]": 2,
      "[SEP]": 3,
      "[MASK]": 4,
      ",": 5,
      ".": 6,
      "##.": 7,
      "##,": 8,
      "có": 9,
      "là": 10,
      "và": 11,
      "của": 12,
      "cho": 13,
      "không": 14,
      "n": 15,
      "được": 16,
      "ch": 17,
      "đã": 18,
      "bạn": 19,
      "##i": 20,
      "##h": 21,
      "trong": 22,
      "##n": 23,
      "với": 24,
      "một": 25,
      "người": 26,
      "hàng": 27,
      "các": 28,
      "đ": 29,
      "\"": 30,
      "khi": 31,
      "này": 32,
      "##m": 33,
      "l": 34,
      "thì": 35,
      "để": 36,
      "k": 37,
      "cũng": 38,
      "##c": 39,
      "m": 40,
      "giá": 41,
      "những": 42,
      "ở": 43,
      "ra": 44,
      "đó": 45,
      "như": 46,
      "mình": 47,
      "công": 48,
      "##y": 49,
      "##g": 50,
      "b": 51,
      "thể": 52,
      "lại": 53,
      "th": 54,
      "shop": 55,
      "mà": 56,
      "sẽ": 57,
      "chỉ": 58,
      "còn": 59,
      "T": 60,
      "vào": 61,
      "ng": 62,
      "về": 63,
      "##/": 64,
      "##ng": 65,
      "phải": 66,
      "làm": 67,
      "B": 68,
      "đến": 69,
      "h": 70,
      "từ": 71,
      "nhiều": 72,
      "d": 73,
      "năm": 74,
      "##!": 75,
      "tại": 76,
      "bị": 77,
      "##o": 78,
      "(": 79,
      "##t": 80,
      "tôi": 81,
      "v": 82,
      "1": 83,
      "đi": 84,
      "nhà": 85,
      "c": 86,
      "trên": 87,
      "hơn": 88,
      "##a": 89,
      "thành": 90,
      "ngày": 91,
      "đơn": 92,
      "nhận": 93,
      "anh": 94,
      "con": 95,
      "đầu": 96,
      "sau": 97,
      "Đ": 98,
      "dụng": 99,
      "nhưng": 100,
      "số": 101,
      "s": 102,
      "##?": 103,
      "##ôi": 104,
      "Shop": 105,
      "Ch": 106,
      "sự": 107,
      "ko": 108,
      "##-": 109,
      "qua": 110,
      "mới": 111,
      "x": 112,
      "trước": 113,
      "nên": 114,
      "thời": 115,
      "##ị": 116,
      "nhất": 117,
      "ông": 118,
      "đánh": 119,
      "việc": 120,
      "2": 121,
      "đồng": 122,
      "ạ": 123,
      "thế": 124,
      "##ào": 125,
      "rồi": 126,
      "biết": 127,
      "hình": 128,
      "hiện": 129,
      "##u": 130,
      "gia": 131,
      "r": 132,
      "C": 133,
      ")": 134,
      "em": 135,
      "ph": 136,
      "cả": 137,
      "rất": 138,
      "nào": 139,
      "ơ": 140,
      "M": 141,
      "hay": 142,
      "gì": 143,
      "nói": 144,
      "tr": 145,
      "##p": 146,
      "cầu": 147,
      "mua": 148,
      "đây": 149,
      "##)": 150,
      "H": 151,
      "t": 152,
      "đang": 153,
      "động": 154,
      "vậy": 155,
      ":": 156,
      "vì": 157,
      "quan": 158,
      "thấy": 159,
      "nước": 160,
      "g": 161,
      "lên": 162,
      "Th": 163,
      "thủ": 164,
      "##:": 165,
      "V": 166,
      "ảnh": 167,
      "Nam": 168,
      "định": 169,
      "##ạn": 170,
      "nhân": 171,
      "vẫn": 172,
      "điều": 173,
      "khác": 174,
      "đội": 175,
      "đá": 176,
      "ý": 177,
      "sao": 178,
      "cao": 179,
      "Việt": 180,
      "chính": 181,
      "nay": 182,
      "cơ": 183,
      "chưa": 184,
      "gửi": 185,
      "gian": 186,
      "-": 187,
      "quá": 188,
      "##hé": 189,
      "tiền": 190,
      "học": 191,
      "cùng": 192,
      "cái": 193,
      "sử": 194,
      "máy": 195,
      "theo": 196,
      "hai": 197,
      "họ": 198,
      "##nh": 199,
      "sản": 200,
      "giao": 201,
      "phẩm": 202,
      "3": 203,
      "##0": 204,
      "bóng": 205,
      "gi": 206,
      "##ẻ": 207,
      "hợp": 208,
      "do": 209,
      "trường": 210,
      "tới": 211,
      "cách": 212,
      "yêu": 213,
      "bộ": 214,
      "giải": 215,
      "giảm": 216,
      "thông": 217,
      "tin": 218,
      "##ư": 219,
      "e": 220,
      "đặt": 221,
      "##L": 222,
      "tình": 223,
      "##N": 224,
      "thu": 225,
      "vừa": 226,
      "sinh": 227,
      "kết": 228,
      "hành": 229,
      "trận": 230,
      "điểm": 231,
      "##ha": 232,
      "tư": 233,
      "lý": 234,
      "viên": 235,
      "D": 236,
      "cảm": 237,
      "##âu": 238,
      "cần": 239,
      "phát": 240,
      "giờ": 241,
      "tiếp": 242,
      "ta": 243,
      "thực": 244,
      "thi": 245,
      "N": 246,
      "lần": 247,
      "dùng": 248,
      "đối": 249,
      "##ấy": 250,
      "##7": 251,
      "hộ": 252,
      "tự": 253,
      "năng": 254,
      "10": 255,
      "cô": 256,
      "tốt": 257,
      "##ạ": 258,
      "xem": 259,
      "xe": 260,
      "S": 261,
      "##ứ": 262,
      "độ": 263,
      "bao": 264,
      "khu": 265,
      "tháng": 266,
      "nó": 267,
      "##ên": 268,
      "bằng": 269,
      "ăn": 270,
      "muốn": 271,
      "bên": 272,
      "lớn": 273,
      "##ô": 274,
      "G": 275,
      "bán": 276,
      "tâm": 277,
      "mặt": 278,
      "##ắc": 279,
      "L": 280,
      "tính": 281,
      "lượng": 282,
      "xuất": 283,
      "##ê": 284,
      "K": 285,
      "giúp": 286,
      "vụ": 287,
      "đấu": 288,
      "##k": 289,
      "nhiên": 290,
      "nữa": 291,
      "trình": 292,
      "thường": 293,
      "tế": 294,
      "nếu": 295,
      "mã": 296,
      "tay": 297,
      "khách": 298,
      "Anh": 299,
      "rằng": 300,
      "cuộc": 301,
      "toàn": 302,
      "chúng": 303,
      "tài": 304,
      "4": 305,
      "##ừng": 306,
      "##ã": 307,
      "5": 308,
      "bàn": 309,
      "tuổi": 310,
      "bảo": 311,
      "hết": 312,
      "##T": 313,
      "hội": 314,
      "##6": 315,
      "giới": 316,
      "dân": 317,
      "màu": 318,
      "chi": 319,
      "bản": 320,
      "chuyển": 321,
      "đường": 322,
      "Cá": 323,
      "luôn": 324,
      "thứ": 325,
      "phần": 326,
      "trọng": 327,
      "điện": 328,
      "cấp": 329,
      "khó": 330,
      "chủ": 331,
      "nhau": 332,
      "##à": 333,
      "Quốc": 334,
      "nghiệp": 335,
      "thắng": 336,
      "xin": 337,
      "##ch": 338,
      "tăng": 339,
      "dự": 340,
      "sống": 341,
      "vị": 342,
      "hệ": 343,
      "ai": 344,
      "triệu": 345,
      "thêm": 346,
      "Trong": 347,
      "chức": 348,
      "##5": 349,
      "áp": 350,
      "quả": 351,
      "kinh": 352,
      "##ả": 353,
      "##20": 354,
      "ấy": 355,
      "ban": 356,
      "lực": 357,
      "tạo": 358,
      "##V": 359,
      "khá": 360,
      "##ỏ": 361,
      "loại": 362,
      "báo": 363,
      "chơi": 364,
      "##ối": 365,
      "đều": 366,
      "vô": 367,
      "trở": 368,
      "mẹ": 369,
      "cư": 370,
      "diễn": 371,
      "đề": 372,
      "liên": 373,
      "##\"": 374,
      "Trung": 375,
      "trẻ": 376,
      "lấy": 377,
      "minh": 378,
      "thương": 379,
      "##ơ": 380,
      "##ết": 381,
      "co": 382,
      "thị": 383,
      "cá": 384,
      "gần": 385,
      "lúc": 386,
      "bố": 387,
      "##ắm": 388,
      "chất": 389,
      "tỷ": 390,
      "va": 391,
      "đúng": 392,
      "##ờ": 393,
      "hiệu": 394,
      "chú": 395,
      "##hi": 396,
      "##r": 397,
      "hoặc": 398,
      "##3": 399,
      "Tuy": 400,
      "so": 401,
      "thật": 402,
      "##ân": 403,
      "chọn": 404,
      "thay": 405,
      "##9": 406,
      "đưa": 407,
      "thiết": 408,
      "ngoài": 409,
      "##êu": 410,
      "thích": 411,
      "vợ": 412,
      "bé": 413,
      "tìm": 414,
      "bình": 415,
      "a": 416,
      "đình": 417,
      "tác": 418,
      "mạnh": 419,
      "##ỗi": 420,
      "chiến": 421,
      "đổi": 422,
      "Theo": 423,
      "Hà": 424,
      "ủng": 425,
      "##ắn": 426,
      "quyết": 427,
      "đại": 428,
      "R": 429,
      "Mỹ": 430,
      "quốc": 431,
      "##e": 432,
      "##000": 433,
      "bất": 434,
      "doanh": 435,
      "##ản": 436,
      "tập": 437,
      "trung": 438,
      "ki": 439,
      "đẹp": 440,
      "bắt": 441,
      "sĩ": 442,
      "khoảng": 443,
      "?": 444,
      "Ng": 445,
      "##8": 446,
      "##ở": 447,
      "phòng": 448,
      "trang": 449,
      "##H": 450,
      "hỏi": 451,
      "vấn": 452,
      "##ho": 453,
      "án": 454,
      "##2": 455,
      "##M": 456,
      "##ật": 457,
      "vi": 458,
      "cứ": 459,
      "chồng": 460,
      "ca": 461,
      "thống": 462,
      "mang": 463,
      "sáng": 464,
      "##ấn": 465,
      "mất": 466,
      "6": 467,
      "ngay": 468,
      "chiếc": 469,
      "phí": 470,
      "bỏ": 471,
      "tra": 472,
      "##ủ": 473,
      "Nếu": 474,
      "sân": 475,
      "nữ": 476,
      "chu": 477,
      "hoàn": 478,
      "thân": 479,
      "nghĩ": 480,
      "tiêu": 481,
      "an": 482,
      "từng": 483,
      "##ưu": 484,
      "lời": 485,
      "tục": 486,
      "##úc": 487,
      "khiến": 488,
      "gặp": 489,
      "sức": 490,
      "tiếng": 491,
      "chuyện": 492,
      "ty": 493,
      "Công": 494,
      "tích": 495,
      "##ạt": 496,
      "mọi": 497,
      "biệt": 498,
      "cổ": 499,
      "chung": 500,
      "bà": 501,
      "xác": 502,
      "Có": 503,
      "bệnh": 504,
      "##ống": 505,
      "hạn": 506,
      "dù": 507,
      "cố": 508,
      "nhỏ": 509,
      "%": 510,
      "gọi": 511,
      "trị": 512,
      "Ph": 513,
      "thức": 514,
      "##18": 515,
      "đủ": 516,
      "##ỡ": 517,
      "##àn": 518,
      "##ận": 519,
      "đạo": 520,
      "##ụ": 521,
      "tham": 522,
      "la": 523,
      "vệ": 524,
      "##ài": 525,
      "##ất": 526,
      "sư": 527,
      "tiên": 528,
      "triển": 529,
      "mỗi": 530,
      "dẫn": 531,
      "##ấm": 532,
      "##ình": 533,
      "ghi": 534,
      "tổ": 535,
      "##ây": 536,
      "##ỉ": 537,
      "kế": 538,
      "##C": 539,
      "X": 540,
      "##ợ": 541,
      "##ấu": 542,
      "phụ": 543,
      "mi": 544,
      "vòng": 545,
      "gái": 546,
      "tên": 547,
      "địa": 548,
      "##1": 549,
      "trả": 550,
      "Các": 551,
      "trí": 552,
      "phục": 553,
      "cuối": 554,
      "dịch": 555,
      "phương": 556,
      "hiểu": 557,
      "vận": 558,
      "##B": 559,
      "##ắp": 560,
      "Nguyễn": 561,
      "Sau": 562,
      "kiến": 563,
      "ba": 564,
      "lo": 565,
      "Nhưng": 566,
      "ứng": 567,
      "sở": 568,
      "ti": 569,
      "Qu": 570,
      "kỳ": 571,
      "thua": 572,
      "##ù": 573,
      "cảnh": 574,
      "chuyên": 575,
      "##ế": 576,
      "7": 577,
      "mẫu": 578,
      "mức": 579,
      "ít": 580,
      "mắt": 581,
      "nhanh": 582,
      "dài": 583,
      "chí": 584,
      "hoạt": 585,
      "lòng": 586,
      "chia": 587,
      "đồ": 588,
      "##ầm": 589,
      "Một": 590,
      "trợ": 591,
      "hôm": 592,
      "gây": 593,
      "chế": 594,
      "pháp": 595,
      "thoại": 596,
      "sát": 597,
      "bay": 598,
      "nghệ": 599,
      "quyền": 600,
      "mùa": 601,
      "giữa": 602,
      "chân": 603,
      "hi": 604,
      "xã": 605,
      "u": 606,
      "##ồi": 607,
      "Bộ": 608,
      "##ệt": 609,
      "##s": 610,
      "##àng": 611,
      "hóa": 612,
      "##òn": 613,
      "##âm": 614,
      "vực": 615,
      "quân": 616,
      "lập": 617,
      "đa": 618,
      "##U": 619,
      "ho": 620,
      "Ông": 621,
      "nhìn": 622,
      "đất": 623,
      "Không": 624,
      "thanh": 625,
      "chứng": 626,
      "quy": 627,
      "##hu": 628,
      "diện": 629,
      "đặc": 630,
      "đời": 631,
      "xa": 632,
      "giữ": 633,
      "y": 634,
      "vui": 635,
      "ok": 636,
      "##4": 637,
      "trưởng": 638,
      "nhập": 639,
      "##ời": 640,
      "da": 641,
      "sang": 642,
      "nổi": 643,
      "đáng": 644,
      "##Đ": 645,
      "Nội": 646,
      "vàng": 647,
      "Khi": 648,
      "khả": 649,
      "##ải": 650,
      "##ện": 651,
      "kiểm": 652,
      "tiết": 653,
      "##ắng": 654,
      "cứu": 655,
      "thuật": 656,
      "nơi": 657,
      "danh": 658,
      "kiện": 659,
      "nghe": 660,
      "tượng": 661,
      "tranh": 662,
      "##ền": 663,
      "áo": 664,
      "##ại": 665,
      "!": 666,
      "##ỗ": 667,
      "tương": 668,
      "bác": 669,
      "giả": 670,
      "biến": 671,
      "cu": 672,
      "hang": 673,
      "lợi": 674,
      "dễ": 675,
      "huy": 676,
      "##ần": 677,
      "##ăng": 678,
      "bởi": 679,
      "##ùng": 680,
      "##ú": 681,
      "tất": 682,
      "phân": 683,
      "size": 684,
      "phim": 685,
      "##I": 686,
      "8": 687,
      "chạy": 688,
      "Văn": 689,
      "may": 690,
      "xuống": 691,
      "##ến": 692,
      "20": 693,
      "màn": 694,
      "đàn": 695,
      "##ự": 696,
      "vật": 697,
      "kể": 698,
      "cha": 699,
      "tinh": 700,
      "##ông": 701,
      "giống": 702,
      "cáo": 703,
      "rõ": 704,
      "thuộc": 705,
      "tuyển": 706,
      "yếu": 707,
      "##on": 708,
      ";": 709,
      "mặc": 710,
      "##ăm": 711,
      "tỉnh": 712,
      "bài": 713,
      "câu": 714,
      "phố": 715,
      "##A": 716,
      "mở": 717,
      "truyền": 718,
      "lâu": 719,
      "trai": 720,
      "liệu": 721,
      "##ong": 722,
      "hướng": 723,
      "già": 724,
      "##ệ": 725,
      "càng": 726,
      "đôi": 727,
      "cửa": 728,
      "##ó": 729,
      "TP": 730,
      "nguyên": 731,
      "chẳng": 732,
      "nam": 733,
      "##he": 734,
      "vọng": 735,
      "tiến": 736,
      "địch": 737,
      "văn": 738,
      "Nga": 739,
      "##(": 740,
      "cụ": 741,
      "chịu": 742,
      "tuần": 743,
      "chuẩn": 744,
      "khí": 745,
      "xử": 746,
      "Hàn": 747,
      "sách": 748,
      "o": 749,
      "##êm": 750,
      "##ơi": 751,
      "khai": 752,
      "##ẹ": 753,
      "dựng": 754,
      "nhiệm": 755,
      "dưới": 756,
      "Minh": 757,
      "đạt": 758,
      "bu": 759,
      "phía": 760,
      "tối": 761,
      "mon": 762,
      "nội": 763,
      "Thái": 764,
      "tổng": 765,
      "tố": 766,
      "sắc": 767,
      "xây": 768,
      "cạnh": 769,
      "##ơn": 770,
      "30": 771,
      "tử": 772,
      "##G": 773,
      "##ứa": 774,
      "qu": 775,
      "Những": 776,
      "##ổ": 777,
      "hỗ": 778,
      "má": 779,
      "hoa": 780,
      "căn": 781,
      "di": 782,
      "lịch": 783,
      "##ớ": 784,
      "trái": 785,
      "cung": 786,
      "vài": 787,
      "phong": 788,
      "dung": 789,
      "bi": 790,
      "##ới": 791,
      "##ễn": 792,
      "nghiệm": 793,
      "gh": 794,
      "duy": 795,
      "hưởng": 796,
      "tưởng": 797,
      "phút": 798,
      "mạng": 799,
      "Người": 800,
      "Đức": 801,
      "##ca": 802,
      "môn": 803,
      "##S": 804,
      "##ãi": 805,
      "nhớ": 806,
      "##ử": 807,
      "khoa": 808,
      "nguy": 809,
      "dành": 810,
      "biểu": 811,
      "ma": 812,
      "Bình": 813,
      "Với": 814,
      "kỹ": 815,
      "USD": 816,
      "riêng": 817,
      "##án": 818,
      "lệ": 819,
      "##x": 820,
      "à": 821,
      "thần": 822,
      "hãng": 823,
      "##ọ": 824,
      "lá": 825,
      "chương": 826,
      "phạm": 827,
      "đoàn": 828,
      "viện": 829,
      "sai": 830,
      "Đây": 831,
      "##è": 832,
      "ký": 833,
      "Thanh": 834,
      "trò": 835,
      "hòa": 836,
      "lộ": 837,
      "##ắt": 838,
      "##l": 839,
      "12": 840,
      "##ợi": 841,
      "##ương": 842,
      "##ốt": 843,
      "vốn": 844,
      "đứng": 845,
      "ship": 846,
      "mục": 847,
      "kiếm": 848,
      "hậu": 849,
      "thiếu": 850,
      "##ố": 851,
      "##%": 852,
      "##ẽ": 853,
      "##phone": 854,
      "##ồn": 855,
      "##kg": 856,
      "tàu": 857,
      "9": 858,
      "##ẳng": 859,
      "ô": 860,
      "##ạc": 861,
      "chiều": 862,
      "dá": 863,
      "rộng": 864,
      "##ụp": 865,
      "hồ": 866,
      "##v": 867,
      "đầy": 868,
      "giáo": 869,
      "nặng": 870,
      "##ạch": 871,
      "hồi": 872,
      "đóng": 873,
      "trực": 874,
      "đỏ": 875,
      "biển": 876,
      "##ơng": 877,
      "##ặt": 878,
      "tu": 879,
      "##ậm": 880,
      "Chi": 881,
      "quản": 882,
      "khỏi": 883,
      "ngoại": 884,
      "tỏ": 885,
      "hữu": 886,
      "##ập": 887,
      "phản": 888,
      "đen": 889,
      "đăng": 890,
      "châu": 891,
      "##ém": 892,
      "##ẩn": 893,
      "sớm": 894,
      "xanh": 895,
      "##ồng": 896,
      "luật": 897,
      "Nhật": 898,
      "##ũ": 899,
      "Hải": 900,
      "nghị": 901,
      "cực": 902,
      "##d": 903,
      "Và": 904,
      "phủ": 905,
      "sợ": 906,
      "nhạc": 907,
      "khăn": 908,
      "15": 909,
      "##ộ": 910,
      "bảng": 911,
      "##ò": 912,
      "du": 913,
      "dà": 914,
      "##ôn": 915,
      "tấn": 916,
      "khoản": 917,
      "##ậ": 918,
      "nằm": 919,
      "##â": 920,
      "fan": 921,
      "kg": 922,
      "i": 923,
      "##ùi": 924,
      "quê": 925,
      "Nhà": 926,
      "gồm": 927,
      "##ánh": 928,
      "Real": 929,
      "phá": 930,
      "##ữa": 931,
      "vùng": 932,
      "Trước": 933,
      "HC": 934,
      "nạn": 935,
      "nghĩa": 936,
      "đo": 937,
      "mu": 938,
      "phép": 939,
      "Vì": 940,
      "Lan": 941,
      "##ầy": 942,
      "nhóm": 943,
      "'": 944,
      "Bar": 945,
      "chấp": 946,
      "thử": 947,
      "trắng": 948,
      "ngôi": 949,
      "Á": 950,
      "Đông": 951,
      "kiểu": 952,
      "trạng": 953,
      "nguồn": 954,
      "tầm": 955,
      "##D": 956,
      "xảy": 957,
      "lai": 958,
      "thư": 959,
      "##an": 960,
      "##ục": 961,
      "##ề": 962,
      "tú": 963,
      "dòng": 964,
      "luận": 965,
      "Thị": 966,
      "##ềm": 967,
      "ngân": 968,
      "thất": 969,
      "##ực": 970,
      "đông": 971,
      "##áu": 972,
      "##ột": 973,
      "##ấp": 974,
      "sơ": 975,
      "coi": 976,
      "Ngoài": 977,
      "nghi": 978,
      "Hoàng": 979,
      "ah": 980,
      "nhờ": 981,
      "đảm": 982,
      "vượt": 983,
      "##ạnh": 984,
      "cây": 985,
      "xét": 986,
      "##un": 987,
      "##ảm": 988,
      "chết": 989,
      "##ếp": 990,
      "11": 991,
      "vai": 992,
      "âm": 993,
      "##ức": 994,
      "##ường": 995,
      "độc": 996,
      "##ọn": 997,
      "hạng": 998,
      "##é": 999,
      "trách": 1000,
      "Hi": 1001,
      "##ưng": 1002,
      "##óc": 1003,
      "Đại": 1004,
      "##ạo": 1005,
      "Chính": 1006,
      "Messi": 1007,
      "phiên": 1008,
      "Tu": 1009,
      "tai": 1010,
      "đoạn": 1011,
      "quý": 1012,
      "A": 1013,
      "##hì": 1014,
      "hôn": 1015,
      "Mo": 1016,
      "hu": 1017,
      "phi": 1018,
      "thấp": 1019,
      "##ọc": 1020,
      "##ì": 1021,
      "Tổng": 1022,
      "Vi": 1023,
      "lưu": 1024,
      "viết": 1025,
      "đau": 1026,
      "##ỏng": 1027,
      "##áy": 1028,
      "50": 1029,
      "quay": 1030,
      "Tại": 1031,
      "hủy": 1032,
      "kỷ": 1033,
      "chỗ": 1034,
      "to": 1035,
      "ngờ": 1036,
      "hơi": 1037,
      "Từ": 1038,
      "quần": 1039,
      "Tây": 1040,
      "chống": 1041,
      "kê": 1042,
      "##đ": 1043,
      "##ằng": 1044,
      "mộ": 1045,
      "100": 1046,
      "lẽ": 1047,
      "góp": 1048,
      "##ún": 1049,
      "toán": 1050,
      "ổn": 1051,
      "đêm": 1052,
      "##á": 1053,
      "đô": 1054,
      "khẩu": 1055,
      "đọc": 1056,
      "##P": 1057,
      "nghỉ": 1058,
      "ha": 1059,
      "bước": 1060,
      "ngành": 1061,
      "##b": 1062,
      "##òi": 1063,
      "Gia": 1064,
      "cũ": 1065,
      "Ban": 1066,
      "Thế": 1067,
      "##èo": 1068,
      "Nó": 1069,
      "hoạch": 1070,
      "tội": 1071,
      "lu": 1072,
      "giành": 1073,
      "tịch": 1074,
      "##ái": 1075,
      "##ảng": 1076,
      "An": 1077,
      "##ếc": 1078,
      "##ứt": 1079,
      "Năm": 1080,
      "huyện": 1081,
      "ni": 1082,
      "##ạm": 1083,
      "phiếu": 1084,
      "##ói": 1085,
      "Chỉ": 1086,
      "tín": 1087,
      "trời": 1088,
      "Ả": 1089,
      "xúc": 1090,
      "kéo": 1091,
      "Em": 1092,
      "mai": 1093,
      "thuốc": 1094,
      "##ợt": 1095,
      "##ớt": 1096,
      "suy": 1097,
      "Ki": 1098,
      "cộng": 1099,
      "Lê": 1100,
      "cầm": 1101,
      "Man": 1102,
      "cậu": 1103,
      "tức": 1104,
      "suất": 1105,
      "nâng": 1106,
      "##ộn": 1107,
      "##ác": 1108,
      "##ăn": 1109,
      "Do": 1110,
      "lựa": 1111,
      "##K": 1112,
      "Chúng": 1113,
      "Thành": 1114,
      "đảo": 1115,
      "lớp": 1116,
      "tướng": 1117,
      "Là": 1118,
      "Dương": 1119,
      "##ảy": 1120,
      "tuyệt": 1121,
      "dục": 1122,
      "phù": 1123,
      "siêu": 1124,
      "Để": 1125,
      "giám": 1126,
      "Sơn": 1127,
      "##ừa": 1128,
      "##ặp": 1129,
      "món": 1130,
      "nghiên": 1131,
      "cân": 1132,
      "##ốn": 1133,
      "##ệm": 1134,
      "thiện": 1135,
      "đốc": 1136,
      "lãnh": 1137,
      "##X": 1138,
      "bại": 1139,
      "tù": 1140,
      "quen": 1141,
      "Ngọc": 1142,
      "Ở": 1143,
      "na": 1144,
      "Điều": 1145,
      "hạ": 1146,
      "hiểm": 1147,
      "Bắc": 1148,
      "##'": 1149,
      "nền": 1150,
      "##ẩm": 1151,
      "Bản": 1152,
      "nhằm": 1153,
      "buổi": 1154,
      "##ỹ": 1155,
      "16": 1156,
      "pin": 1157,
      "kích": 1158,
      "Hiện": 1159,
      "mau": 1160,
      "##èm": 1161,
      "##ũng": 1162,
      "á": 1163,
      "iPhone": 1164,
      "##ể": 1165,
      "sửa": 1166,
      "Apple": 1167,
      "lượt": 1168,
      "mô": 1169,
      "##O": 1170,
      "lao": 1171,
      "nhẹ": 1172,
      "tải": 1173,
      "giản": 1174,
      "##í": 1175,
      "Si": 1176,
      "##ứng": 1177,
      "##yên": 1178,
      "tiện": 1179,
      "Chủ": 1180,
      "##ển": 1181,
      "lễ": 1182,
      "giác": 1183,
      "thái": 1184,
      "Trần": 1185,
      "tốc": 1186,
      "##áng": 1187,
      "xếp": 1188,
      "##ảo": 1189,
      "hát": 1190,
      "##F": 1191,
      "xứ": 1192,
      "##ếu": 1193,
      "##Q": 1194,
      "bổ": 1195,
      "bức": 1196,
      "##ưới": 1197,
      "##ội": 1198,
      "Pháp": 1199,
      "quận": 1200,
      "Cô": 1201,
      "2014": 1202,
      "Bà": 1203,
      "##00": 1204,
      "Đồng": 1205,
      "ưu": 1206,
      "lạc": 1207,
      "##en": 1208,
      "##há": 1209,
      "hút": 1210,
      "##èn": 1211,
      "##NG": 1212,
      "sú": 1213,
      "hài": 1214,
      "sâu": 1215,
      "tặng": 1216,
      "Ngày": 1217,
      "tận": 1218,
      "can": 1219,
      "##10": 1220,
      "luyện": 1221,
      "##ầu": 1222,
      "##ồ": 1223,
      "vua": 1224,
      "##ậu": 1225,
      "Chu": 1226,
      "Lu": 1227,
      "só": 1228,
      "cam": 1229,
      "Mu": 1230,
      "sẵn": 1231,
      "dây": 1232,
      "đổ": 1233,
      "nuôi": 1234,
      "vũ": 1235,
      "Thu": 1236,
      "Họ": 1237,
      "tránh": 1238,
      "Hoa": 1239,
      "##E": 1240,
      "thúc": 1241,
      "Du": 1242,
      "lương": 1243,
      "I": 1244,
      "thưởng": 1245,
      "gắng": 1246,
      "thiên": 1247,
      "lĩnh": 1248,
      "ak": 1249,
      "hại": 1250,
      "bá": 1251,
      "xuyên": 1252,
      "chiếm": 1253,
      "Hai": 1254,
      "18": 1255,
      "cánh": 1256,
      "cải": 1257,
      "suốt": 1258,
      "Q": 1259,
      "##át": 1260,
      "game": 1261,
      "1370": 1262,
      "ấn": 1263,
      "tôn": 1264,
      "quanh": 1265,
      "phối": 1266,
      "tá": 1267,
      "##j": 1268,
      "Tư": 1269,
      "Long": 1270,
      "thuận": 1271,
      "##tr": 1272,
      "Ho": 1273,
      "2013": 1274,
      "##ều": 1275,
      "bầu": 1276,
      "Nhiều": 1277,
      "bạc": 1278,
      "Cho": 1279,
      "E": 1280,
      "cử": 1281,
      "sp": 1282,
      "Sao": 1283,
      "1479": 1284,
      "CL": 1285,
      "1367": 1286,
      "##ua": 1287,
      "thừa": 1288,
      "P": 1289,
      "thẳng": 1290,
      "trải": 1291,
      "##ẫn": 1292,
      "Như": 1293,
      "tuy": 1294,
      "##ND": 1295,
      "##áo": 1296,
      "25": 1297,
      "Âu": 1298,
      "Cup": 1299,
      "niên": 1300,
      "14": 1301,
      "đáp": 1302,
      "đem": 1303,
      "dạng": 1304,
      "##12": 1305,
      "môi": 1306,
      "dưỡng": 1307,
      "...": 1308,
      "Thủ": 1309,
      "##ốc": 1310,
      "##úp": 1311,
      "nhiệt": 1312,
      "dấu": 1313,
      "buộc": 1314,
      "##ớp": 1315,
      "13": 1316,
      "##ỏa": 1317,
      "Liên": 1318,
      "thậm": 1319,
      "í": 1320,
      "NH": 1321,
      "chữa": 1322,
      "##ính": 1323,
      "kẻ": 1324,
      "##ược": 1325,
      "##ệnh": 1326,
      "thao": 1327,
      "##ợn": 1328,
      "##õ": 1329,
      "Y": 1330,
      "làng": 1331,
      "Trường": 1332,
      "##ữ": 1333,
      "đẩy": 1334,
      "##ước": 1335,
      "##ép": 1336,
      "mối": 1337,
      "tuyên": 1338,
      "dầu": 1339,
      "chỉnh": 1340,
      "Con": 1341,
      "khắc": 1342,
      "##út": 1343,
      "##han": 1344,
      "thơ": 1345,
      "thác": 1346,
      "dat": 1347,
      "kính": 1348,
      "##hắc": 1349,
      "##in": 1350,
      "van": 1351,
      "nhật": 1352,
      "##ệu": 1353,
      "roi": 1354,
      "##ón": 1355,
      "##ă": 1356,
      "thú": 1357,
      "Phó": 1358,
      "mại": 1359,
      "cấu": 1360,
      "nối": 1361,
      "##hị": 1362,
      "tuyến": 1363,
      "khởi": 1364,
      "nghề": 1365,
      "##ý": 1366,
      "tri": 1367,
      "Phú": 1368,
      "tung": 1369,
      "trao": 1370,
      "##ãn": 1371,
      "Việc": 1372,
      "Quang": 1373,
      "máu": 1374,
      "##14": 1375,
      "Cũng": 1376,
      "##ẫu": 1377,
      "Di": 1378,
      "Hội": 1379,
      "##ờng": 1380,
      "hy": 1381,
      "than": 1382,
      "gắn": 1383,
      "Bi": 1384,
      "tòa": 1385,
      "nổ": 1386,
      "Linh": 1387,
      "đương": 1388,
      "tó": 1389,
      "##ạp": 1390,
      "##ai": 1391,
      "Samsung": 1392,
      "Phương": 1393,
      "cai": 1394,
      "đào": 1395,
      "quán": 1396,
      "giấy": 1397,
      "trú": 1398,
      "chữ": 1399,
      "Đến": 1400,
      "Châu": 1401,
      "Đà": 1402,
      "soát": 1403,
      "##ỷ": 1404,
      "Nha": 1405,
      "##ượng": 1406,
      "40": 1407,
      "##oa": 1408,
      "dần": 1409,
      "Hu": 1410,
      "Xuân": 1411,
      "24": 1412,
      "##yến": 1413,
      "Huy": 1414,
      "tầng": 1415,
      "z": 1416,
      "ly": 1417,
      "rút": 1418,
      "17": 1419,
      "##ếm": 1420,
      "rơi": 1421,
      "nghiêm": 1422,
      "##th": 1423,
      "mật": 1424,
      "trì": 1425,
      "ngang": 1426,
      "##ễ": 1427,
      "Ok": 1428,
      "tả": 1429,
      "kim": 1430,
      "##ẳ": 1431,
      "khảo": 1432,
      "tạm": 1433,
      "Ko": 1434,
      "lửa": 1435,
      "de": 1436,
      "ngắn": 1437,
      "Kim": 1438,
      "##Y": 1439,
      "mềm": 1440,
      "chóng": 1441,
      "cập": 1442,
      "hấp": 1443,
      "Hồ": 1444,
      "tim": 1445,
      "khủng": 1446,
      "League": 1447,
      "chuyến": 1448,
      "ư": 1449,
      "giai": 1450,
      "thăm": 1451,
      "khúc": 1452,
      "La": 1453,
      "song": 1454,
      "##ĩ": 1455,
      "Chelsea": 1456,
      "đỡ": 1457,
      "ngược": 1458,
      "nửa": 1459,
      "ràng": 1460,
      "đoán": 1461,
      "U": 1462,
      "bề": 1463,
      "##oi": 1464,
      "lục": 1465,
      "sendo": 1466,
      "Vũ": 1467,
      "biên": 1468,
      "đẳng": 1469,
      "##R": 1470,
      "##ãng": 1471,
      "To": 1472,
      "trừ": 1473,
      "ấ": 1474,
      "cắt": 1475,
      "19": 1476,
      "ước": 1477,
      "trụ": 1478,
      "Ba": 1479,
      "1477": 1480,
      "##uo": 1481,
      "##ét": 1482,
      "bánh": 1483,
      "##iá": 1484,
      "khô": 1485,
      "dạy": 1486,
      "binh": 1487,
      "##em": 1488,
      "Hồng": 1489,
      "khối": 1490,
      "j": 1491,
      "rá": 1492,
      "ánh": 1493,
      "Mai": 1494,
      "hồng": 1495,
      "ru": 1496,
      "Má": 1497,
      "smart": 1498,
      "đe": 1499,
      "rời": 1500,
      "phổ": 1501,
      "thí": 1502,
      "##30": 1503,
      "liền": 1504,
      "F": 1505,
      "cường": 1506,
      "tái": 1507,
      "dâ": 1508,
      "##11": 1509,
      "duo": 1510,
      "tan": 1511,
      "gà": 1512,
      "đích": 1513,
      "##co": 1514,
      "mời": 1515,
      "phóng": 1516,
      "Ti": 1517,
      "miền": 1518,
      "##À": 1519,
      "loạt": 1520,
      "lan": 1521,
      "Độ": 1522,
      "21": 1523,
      "##ặng": 1524,
      "Phi": 1525,
      "nông": 1526,
      "Vân": 1527,
      "##ặ": 1528,
      "hiệp": 1529,
      "camera": 1530,
      "22": 1531,
      "##ẹp": 1532,
      "linh": 1533,
      "Sự": 1534,
      "bày": 1535,
      "Nguyên": 1536,
      "the": 1537,
      "sung": 1538,
      "60": 1539,
      "##ệp": 1540,
      "Về": 1541,
      "ke": 1542,
      "thai": 1543,
      "hầu": 1544,
      "Quảng": 1545,
      "video": 1546,
      "thụ": 1547,
      "su": 1548,
      "Ronaldo": 1549,
      "Hòa": 1550,
      "The": 1551,
      "Tiến": 1552,
      "cận": 1553,
      "xung": 1554,
      "##yền": 1555,
      "họa": 1556,
      "gu": 1557,
      "ngăn": 1558,
      "##ẩ": 1559,
      "thiệt": 1560,
      "##le": 1561,
      "##óm": 1562,
      "hạt": 1563,
      "sóng": 1564,
      "##ọng": 1565,
      "##er": 1566,
      "Thời": 1567,
      "##ọt": 1568,
      "Tân": 1569,
      "đột": 1570,
      "Phạm": 1571,
      "C1": 1572,
      "##õi": 1573,
      "phán": 1574,
      "thủy": 1575,
      "##19": 1576,
      "thịt": 1577,
      "lẫn": 1578,
      "phận": 1579,
      "họp": 1580,
      "Xi": 1581,
      "23": 1582,
      "nét": 1583,
      "in": 1584,
      "thoát": 1585,
      "gốc": 1586,
      "hè": 1587,
      "Bảo": 1588,
      "băng": 1589,
      "niệm": 1590,
      "hoàng": 1591,
      "CH": 1592,
      "##ểu": 1593,
      "al": 1594,
      "##w": 1595,
      "Giang": 1596,
      "khóa": 1597,
      "thù": 1598,
      "hải": 1599,
      "+": 1600,
      "##ưởng": 1601,
      "bí": 1602,
      "150": 1603,
      "quảng": 1604,
      "##50": 1605,
      "thảo": 1606,
      "tiểu": 1607,
      "##hen": 1608,
      "0": 1609,
      "Malaysia": 1610,
      "bo": 1611,
      "Đội": 1612,
      "Park": 1613,
      "##ẫ": 1614,
      "dữ": 1615,
      "Sở": 1616,
      "cứng": 1617,
      "##ựu": 1618,
      "Hương": 1619,
      "go": 1620,
      "Ai": 1621,
      "mưa": 1622,
      "chiếu": 1623,
      "é": 1624,
      "Arsenal": 1625,
      "Thông": 1626,
      "đỉnh": 1627,
      "##ùa": 1628,
      "bọ": 1629,
      "City": 1630,
      "Giám": 1631,
      "Trên": 1632,
      "##ót": 1633,
      "nắm": 1634,
      "Sa": 1635,
      "28": 1636,
      "Lý": 1637,
      "vs": 1638,
      "gió": 1639,
      "Na": 1640,
      "phê": 1641,
      "ro": 1642,
      "toi": 1643,
      "chặn": 1644,
      "xưa": 1645,
      "che": 1646,
      "26": 1647,
      "27": 1648,
      "tre": 1649,
      "Li": 1650,
      "##ĩnh": 1651,
      "##z": 1652,
      "thuyết": 1653,
      "Điện": 1654,
      "##Á": 1655,
      "on": 1656,
      "2012": 1657,
      "tắc": 1658,
      "200": 1659,
      "Hạ": 1660,
      "tồn": 1661,
      "sông": 1662,
      "nin": 1663,
      "Phòng": 1664,
      "Co": 1665,
      "##ỳnh": 1666,
      "Lâm": 1667,
      "##+": 1668,
      "Liverpool": 1669,
      "##hie": 1670,
      "hương": 1671,
      "đuổi": 1672,
      "Galaxy": 1673,
      "##15": 1674,
      "ống": 1675,
      "Trang": 1676,
      "kì": 1677,
      "truy": 1678,
      "##ướng": 1679,
      "##ín": 1680,
      "ả": 1681,
      "phường": 1682,
      "li": 1683,
      "##òng": 1684,
      "moi": 1685,
      "thiệu": 1686,
      "lệnh": 1687,
      "kịch": 1688,
      "dựa": 1689,
      "Nhân": 1690,
      "Kinh": 1691,
      "nhiễm": 1692,
      "Mi": 1693,
      "##op": 1694,
      "Cơ": 1695,
      "M1": 1696,
      "thổ": 1697,
      "Android": 1698,
      "##ẵ": 1699,
      "CR": 1700,
      "##kh": 1701,
      "no": 1702,
      "liệt": 1703,
      "Tha": 1704,
      "##hung": 1705,
      "von": 1706,
      "chứa": 1707,
      "thước": 1708,
      "dụ": 1709,
      "UB": 1710,
      "ao": 1711,
      "Ukraine": 1712,
      "cuốn": 1713,
      "Ha": 1714,
      "võ": 1715,
      "World": 1716,
      "##hong": 1717,
      "Kỳ": 1718,
      "don": 1719,
      "ga": 1720,
      "bốn": 1721,
      "chó": 1722,
      "Ninh": 1723,
      "lay": 1724,
      "lược": 1725,
      "##ặc": 1726,
      "Sá": 1727,
      "29": 1728,
      "O": 1729,
      "đài": 1730,
      "##yết": 1731,
      "inch": 1732,
      "500": 1733,
      "##ba": 1734,
      "se": 1735,
      "quang": 1736,
      "tỉ": 1737,
      "##ười": 1738,
      "Pe": 1739,
      "##ar": 1740,
      "Qua": 1741,
      "Ngô": 1742,
      "huấn": 1743,
      "Mặc": 1744,
      "phái": 1745,
      "tộc": 1746,
      "bụng": 1747,
      "##200": 1748,
      "2015": 1749,
      "Ca": 1750,
      "Cầu": 1751,
      "##ưỡng": 1752,
      "thánh": 1753,
      "dậy": 1754,
      "Tiền": 1755,
      "tạp": 1756,
      "Cục": 1757,
      "90": 1758,
      "##;": 1759,
      "Khánh": 1760,
      "ngôn": 1761,
      "Z": 1762,
      "Al": 1763,
      "70": 1764,
      "##70": 1765,
      "Chí": 1766,
      "tha": 1767,
      "##úa": 1768,
      "Ne": 1769,
      "Đình": 1770,
      "##hã": 1771,
      "khắp": 1772,
      "dao": 1773,
      "##Ư": 1774,
      "##ụng": 1775,
      "##ám": 1776,
      "Vào": 1777,
      "Khu": 1778,
      "sa": 1779,
      "â": 1780,
      "Champions": 1781,
      "núi": 1782,
      "né": 1783,
      "Ấn": 1784,
      "Cu": 1785,
      "Tiên": 1786,
      "bang": 1787,
      "##AG": 1788,
      "##ấ": 1789,
      "trồng": 1790,
      "##ượu": 1791,
      "ngữ": 1792,
      "##cm": 1793,
      "##ểm": 1794,
      "ví": 1795,
      "##65": 1796,
      "top": 1797,
      "##hoe": 1798,
      "##2013": 1799,
      "gỗ": 1800,
      "##ym": 1801,
      "trùng": 1802,
      "Hiệp": 1803,
      "Mon": 1804,
      "mạch": 1805,
      "HD": 1806,
      "dương": 1807,
      "Fan": 1808,
      "Quân": 1809,
      "##hop": 1810,
      "si": 1811,
      "tàn": 1812,
      "##99": 1813,
      "mũi": 1814,
      "##ia": 1815,
      "##et": 1816,
      "voi": 1817,
      "Cách": 1818,
      "Tra": 1819,
      "ương": 1820,
      "trích": 1821,
      "Xu": 1822,
      "bò": 1823,
      "Note": 1824,
      "Hy": 1825,
      "##com": 1826,
      "##àu": 1827,
      "hổ": 1828,
      "khiển": 1829,
      "##NH": 1830,
      "Hưng": 1831,
      "hùng": 1832,
      "##16": 1833,
      "Thiên": 1834,
      "##Ạ": 1835,
      "tán": 1836,
      "Đầu": 1837,
      "sam": 1838,
      "Phong": 1839,
      "Sài": 1840,
      "Đặc": 1841,
      "bậc": 1842,
      "Ủy": 1843,
      "tròn": 1844,
      "bắn": 1845,
      "cờ": 1846,
      "ná": 1847,
      "##ạng": 1848,
      "##ít": 1849,
      "MC": 1850,
      "mac": 1851,
      "vĩ": 1852,
      "Cuộc": 1853,
      "Bu": 1854,
      "Facebook": 1855,
      "cup": 1856,
      "km": 1857,
      "80": 1858,
      "bờ": 1859,
      "Giải": 1860,
      "thôn": 1861,
      "đền": 1862,
      "##yen": 1863,
      "##ph": 1864,
      "đế": 1865,
      "trưng": 1866,
      "2016": 1867,
      "loài": 1868,
      "cỏ": 1869,
      "san": 1870,
      "Ý": 1871,
      "35": 1872,
      "bào": 1873,
      "Vie": 1874,
      "##sh": 1875,
      "trúc": 1876,
      "dau": 1877,
      "Cảnh": 1878,
      "Đào": 1879,
      "2000": 1880,
      "súng": 1881,
      "##éo": 1882,
      "sim": 1883,
      "TV": 1884,
      "tắt": 1885,
      "Su": 1886,
      "##ườn": 1887,
      "din": 1888,
      "sắt": 1889,
      "##bo": 1890,
      "he": 1891,
      "2011": 1892,
      "ngọt": 1893,
      "##ổi": 1894,
      "Trọng": 1895,
      "giết": 1896,
      "vin": 1897,
      "##24": 1898,
      "CP": 1899,
      "ung": 1900,
      "Madrid": 1901,
      "##ích": 1902,
      "New": 1903,
      "dan": 1904,
      "Thủy": 1905,
      "So": 1906,
      "ẩ": 1907,
      "32": 1908,
      "##am": 1909,
      "##vi": 1910,
      "1425": 1911,
      "loạn": 1912,
      "thập": 1913,
      "Lo": 1914,
      "tí": 1915,
      "nua": 1916,
      "quỹ": 1917,
      "phó": 1918,
      "Tri": 1919,
      "chip": 1920,
      "Hay": 1921,
      "##55": 1922,
      "##ve": 1923,
      "ủy": 1924,
      "##&": 1925,
      "##27": 1926,
      "Gòn": 1927,
      "Ut": 1928,
      "##ão": 1929,
      "##ta": 1930,
      "Chiến": 1931,
      "Tập": 1932,
      "Phan": 1933,
      "##la": 1934,
      "mó": 1935,
      "Cao": 1936,
      "tây": 1937,
      "Sony": 1938,
      "Ju": 1939,
      "doi": 1940,
      "##hiu": 1941,
      "31": 1942,
      "hon": 1943,
      "##23": 1944,
      "##25": 1945,
      "man": 1946,
      "Tổ": 1947,
      "##urin": 1948,
      "##dt": 1949,
      "300": 1950,
      "09": 1951,
      "##Ô": 1952,
      "SH": 1953,
      "hin": 1954,
      "W": 1955,
      "LG": 1956,
      "&": 1957,
      "rừng": 1958,
      "##45": 1959,
      "ẩm": 1960,
      "Ta": 1961,
      "điển": 1962,
      "45": 1963,
      "Hữu": 1964,
      "Hóa": 1965,
      "non": 1966,
      "web": 1967,
      "##do": 1968,
      "##17": 1969,
      "##HC": 1970,
      "Cuối": 1971,
      "cm": 1972,
      "##press": 1973,
      "Phúc": 1974,
      "free": 1975,
      "Mã": 1976,
      "Đan": 1977,
      "WC": 1978,
      "Bayern": 1979,
      "dọa": 1980,
      "vây": 1981,
      "chảy": 1982,
      "den": 1983,
      "Bồ": 1984,
      "##60": 1985,
      "Bí": 1986,
      "2018": 1987,
      "Da": 1988,
      "ố": 1989,
      "IP": 1990,
      "kháng": 1991,
      "##ịch": 1992,
      "Nữ": 1993,
      "##ka": 1994,
      "Đô": 1995,
      "pen": 1996,
      "son": 1997,
      "PS": 1998,
      "app": 1999,
      "ve": 2000,
      "##xel": 2001,
      "Biên": 2002,
      "Đảng": 2003,
      "##13": 2004,
      "Google": 2005,
      "##W": 2006,
      "vo": 2007,
      "nt": 2008,
      "kênh": 2009,
      "noi": 2010,
      "##22": 2011,
      "nu": 2012,
      "Brazil": 2013,
      "ben": 2014,
      "Quan": 2015,
      "##OS": 2016,
      "Vương": 2017,
      "Viện": 2018,
      "be": 2019,
      "Vu": 2020,
      "Ra": 2021,
      "day": 2022,
      "2010": 2023,
      "thăng": 2024,
      "não": 2025,
      "##35": 2026,
      "Nghệ": 2027,
      "Yên": 2028,
      "xương": 2029,
      "Trương": 2030,
      "bãi": 2031,
      "##vn": 2032,
      "##ìm": 2033,
      "55": 2034,
      "Nokia": 2035,
      "hoang": 2036,
      "##ộc": 2037,
      "##f": 2038,
      "##áp": 2039,
      "Tá": 2040,
      "thượng": 2041,
      "Hậu": 2042,
      "hk": 2043,
      "Argentina": 2044,
      "f": 2045,
      "Giáo": 2046,
      "Đài": 2047,
      "##ổng": 2048,
      "há": 2049,
      "hag": 2050,
      "##80": 2051,
      "Vĩnh": 2052,
      "Định": 2053,
      "##si": 2054,
      "lau": 2055,
      "##bank": 2056,
      "##66": 2057,
      "Australia": 2058,
      "Nadal": 2059,
      "trấn": 2060,
      "p": 2061,
      "Chương": 2062,
      "sứ": 2063,
      "Hồi": 2064,
      "##hone": 2065,
      "##ie": 2066,
      "##na": 2067,
      "##uy": 2068,
      "Triều": 2069,
      "U23": 2070,
      "Khoa": 2071,
      "At": 2072,
      "Zi": 2073,
      "ngựa": 2074,
      "Loan": 2075,
      "##ty": 2076,
      "chan": 2077,
      "##97": 2078,
      "Singapore": 2079,
      "##bi": 2080,
      "set": 2081,
      "##21": 2082,
      "trào": 2083,
      "Ga": 2084,
      "##oan": 2085,
      "##us": 2086,
      "May": 2087,
      "##58": 2088,
      "Van": 2089,
      "##26": 2090,
      "trữ": 2091,
      "Po": 2092,
      "săn": 2093,
      "tien": 2094,
      "gan": 2095,
      "##36": 2096,
      "##33": 2097,
      "##ung": 2098,
      "dt": 2099,
      "##71": 2100,
      "ổ": 2101,
      "##gi": 2102,
      "hl": 2103,
      "Phần": 2104,
      "##28": 2105,
      "Thụy": 2106,
      "show": 2107,
      "David": 2108,
      "##ừ": 2109,
      "bão": 2110,
      "J": 2111,
      "Đoàn": 2112,
      "##hí": 2113,
      "GB": 2114,
      "##ách": 2115,
      "Tú": 2116,
      "Học": 2117,
      "Ô": 2118,
      "Liga": 2119,
      "1000": 2120,
      "##sung": 2121,
      "clip": 2122,
      "Bài": 2123,
      "lâm": 2124,
      "thuyền": 2125,
      "ứ": 2126,
      "Tháng": 2127,
      "đĩa": 2128,
      "##46": 2129,
      "Ni": 2130,
      "mực": 2131,
      "##44": 2132,
      "mk": 2133,
      "##38": 2134,
      "thờ": 2135,
      "bom": 2136,
      "##69": 2137,
      "Thuận": 2138,
      "Mặt": 2139,
      "##NA": 2140,
      "OK": 2141,
      "toa": 2142,
      "Song": 2143,
      "lông": 2144,
      "Tin": 2145,
      "##ỳ": 2146,
      "36": 2147,
      "##49": 2148,
      "##53": 2149,
      "No": 2150,
      "##34": 2151,
      "zal": 2152,
      "2017": 2153,
      "##86": 2154,
      "##én": 2155,
      "##91": 2156,
      "run": 2157,
      "##64": 2158,
      "##57": 2159,
      "65": 2160,
      "##85": 2161,
      "long": 2162,
      "bar": 2163,
      "##les": 2164,
      "##GB": 2165,
      "##up": 2166,
      "SS": 2167,
      "##47": 2168,
      "bắc": 2169,
      "pháo": 2170,
      "##43": 2171,
      "2008": 2172,
      "anti": 2173,
      "##48": 2174,
      "##ne": 2175,
      "Lương": 2176,
      "TR": 2177,
      "##32": 2178,
      "##ùn": 2179,
      "##31": 2180,
      "Chung": 2181,
      "2009": 2182,
      "say": 2183,
      "##52": 2184,
      "Ma": 2185,
      "##book": 2186,
      "ủ": 2187,
      "Hệ": 2188,
      "Cha": 2189,
      "##ham": 2190,
      "##59": 2191,
      "##mi": 2192,
      "De": 2193,
      "Pro": 2194,
      "##leti": 2195,
      "q": 2196,
      "mét": 2197,
      "##id": 2198,
      "PV": 2199,
      "Sen": 2200,
      "of": 2201,
      "##ic": 2202,
      "sáu": 2203,
      "ngầm": 2204,
      "My": 2205,
      "Đường": 2206,
      "##Ệ": 2207,
      "Camp": 2208,
      "##83": 2209,
      "##OP": 2210,
      "##04": 2211,
      "##82": 2212,
      "note": 2213,
      "##ỵ": 2214,
      "##41": 2215,
      "dọc": 2216,
      "##40": 2217,
      "##top": 2218,
      "@": 2219,
      "##Ó": 2220,
      "VF": 2221,
      "##ằn": 2222,
      "Thượng": 2223,
      "SE": 2224,
      "Indonesia": 2225,
      "trục": 2226,
      "Ka": 2227,
      "lap": 2228,
      "##ko": 2229,
      "xâm": 2230,
      "Tự": 2231,
      "Áo": 2232,
      "len": 2233,
      "nga": 2234,
      "Tấn": 2235,
      "mo": 2236,
      "Bin": 2237,
      "Sinh": 2238,
      "ám": 2239,
      "##42": 2240,
      "RAM": 2241,
      "Italy": 2242,
      "giảng": 2243,
      "trại": 2244,
      "##oc": 2245,
      "andro": 2246,
      "Iraq": 2247,
      "Windows": 2248,
      "han": 2249,
      "TA": 2250,
      "##Ế": 2251,
      "SN": 2252,
      "Lưu": 2253,
      "5000": 2254,
      "Phước": 2255,
      "CS": 2256,
      "mưu": 2257,
      "##Ê": 2258,
      "TT": 2259,
      "mes": 2260,
      "##mm": 2261,
      "##ằ": 2262,
      "online": 2263,
      "##lb": 2264,
      "Juventus": 2265,
      "##uc": 2266,
      "Cộng": 2267,
      "Philippines": 2268,
      "Cam": 2269,
      "tam": 2270,
      "vu": 2271,
      "38": 2272,
      "đạn": 2273,
      "vương": 2274,
      "##mia": 2275,
      "##Ả": 2276,
      "Lam": 2277,
      "chim": 2278,
      "im": 2279,
      "Mùa": 2280,
      "tím": 2281,
      "##q": 2282,
      "##90": 2283,
      "ê": 2284,
      "##J": 2285,
      "Store": 2286,
      "##ra": 2287,
      "Reuters": 2288,
      "400": 2289,
      "vie": 2290,
      "10000": 2291,
      "Iran": 2292,
      "TN": 2293,
      "U19": 2294,
      "##al": 2295,
      "AF": 2296,
      "tách": 2297,
      "Lai": 2298,
      "model": 2299,
      "HTC": 2300,
      "##Z": 2301,
      "01": 2302,
      "Mac": 2303,
      "ad": 2304,
      "##úi": 2305,
      "##51": 2306,
      "nhánh": 2307,
      "real": 2308,
      "Euro": 2309,
      "Dân": 2310,
      "mat": 2311,
      "##@": 2312,
      "##Ấ": 2313,
      "Milan": 2314,
      "64": 2315,
      "sen": 2316,
      "nang": 2317,
      "##ck": 2318,
      "diệt": 2319,
      "##rà": 2320,
      "mot": 2321,
      "##km": 2322,
      "Tòa": 2323,
      "48": 2324,
      "VA": 2325,
      "chùa": 2326,
      "II": 2327,
      "##Ì": 2328,
      "Cổ": 2329,
      "##ya": 2330,
      "tro": 2331,
      "75": 2332,
      "xạ": 2333,
      "##ger": 2334,
      "##fi": 2335,
      "het": 2336,
      "chủng": 2337,
      "dk": 2338,
      "com": 2339,
      "Vietnam": 2340,
      "Nghĩa": 2341,
      "##nă": 2342,
      "34": 2343,
      "hàm": 2344,
      "leo": 2345,
      "##ma": 2346,
      "hot": 2347,
      "lang": 2348,
      "As": 2349,
      "##eu": 2350,
      "33": 2351,
      "lính": 2352,
      "St": 2353,
      "/": 2354,
      "NG": 2355,
      "nen": 2356,
      "##hat": 2357,
      "York": 2358,
      "37": 2359,
      "Sc": 2360,
      "Sang": 2361,
      "##wei": 2362,
      "đảng": 2363,
      "Hua": 2364,
      "##api": 2365,
      "02": 2366,
      "##ttel": 2367,
      "42": 2368,
      "Internet": 2369,
      "##ay": 2370,
      "hoá": 2371,
      "sh": 2372,
      "Sam": 2373,
      "dai": 2374,
      "04": 2375,
      "truyện": 2376,
      "VI": 2377,
      "##ìa": 2378,
      "Fed": 2379,
      "##jo": 2380,
      "Khan": 2381,
      "za": 2382,
      "ồ": 2383,
      "hung": 2384,
      "He": 2385,
      "Bale": 2386,
      "05": 2387,
      "39": 2388,
      "08": 2389,
      "Bao": 2390,
      "Lộc": 2391,
      "ham": 2392,
      "##sa": 2393,
      "meg": 2394,
      "2007": 2395,
      "eo": 2396,
      "sz": 2397,
      "##Â": 2398,
      "##Ố": 2399,
      "Pi": 2400,
      "mm": 2401,
      "##lo": 2402,
      "2006": 2403,
      "016": 2404,
      "##chi": 2405,
      "San": 2406,
      "face": 2407,
      "Za": 2408,
      "ốc": 2409,
      "me": 2410,
      "FA": 2411,
      "xỉ": 2412,
      "Tam": 2413,
      "2019": 2414,
      "Già": 2415,
      "Microsoft": 2416,
      "Ar": 2417,
      "Va": 2418,
      "dong": 2419,
      "London": 2420,
      "##ao": 2421,
      "##to": 2422,
      "đai": 2423,
      "w": 2424,
      "Lee": 2425,
      "##HP": 2426,
      "iOS": 2427,
      "##nde": 2428,
      "##ro": 2429,
      "Bp": 2430,
      "GT": 2431,
      "##ti": 2432,
      "Tử": 2433,
      "3000": 2434,
      "##dane": 2435,
      "##íu": 2436,
      "##ri": 2437,
      "tren": 2438,
      "Inter": 2439,
      "Obama": 2440,
      "Syria": 2441,
      "EU": 2442,
      "rắn": 2443,
      "##ing": 2444,
      "##ry": 2445,
      "##fa": 2446,
      "Sư": 2447,
      "loi": 2448,
      "cảng": 2449,
      "##01": 2450,
      "##Ậ": 2451,
      "Barcelona": 2452,
      "Wi": 2453,
      "Black": 2454,
      "đuôi": 2455,
      "##CP": 2456,
      "##go": 2457,
      "##li": 2458,
      "##xy": 2459,
      "Top": 2460,
      "##uchi": 2461,
      "Olympic": 2462,
      "##net": 2463,
      "Truy": 2464,
      "mini": 2465,
      "Paris": 2466,
      "chúa": 2467,
      "800": 2468,
      "03": 2469,
      "##da": 2470,
      "VT": 2471,
      "Liv": 2472,
      "Wen": 2473,
      "##có": 2474,
      "bong": 2475,
      "AN": 2476,
      "Hong": 2477,
      "Thiếu": 2478,
      "Me": 2479,
      "##100": 2480,
      "120": 2481,
      "chat": 2482,
      "##ui": 2483,
      "dì": 2484,
      "52": 2485,
      "ACB": 2486,
      "Premier": 2487,
      "MH": 2488,
      "neu": 2489,
      "soạn": 2490,
      "##os": 2491,
      "53": 2492,
      "##one": 2493,
      "Tiểu": 2494,
      "Federer": 2495,
      "##man": 2496,
      "One": 2497,
      "2004": 2498,
      "dien": 2499,
      "##se": 2500,
      "Che": 2501,
      "Trái": 2502,
      "giáp": 2503,
      "3D": 2504,
      "43": 2505,
      "m2": 2506,
      "ớ": 2507,
      "##ge": 2508,
      "In": 2509,
      "600": 2510,
      "Tottenham": 2511,
      "99": 2512,
      "bai": 2513,
      "Games": 2514,
      "United": 2515,
      "##pad": 2516,
      "##eague": 2517,
      "##ki": 2518,
      "BT": 2519,
      "ú": 2520,
      "comment": 2521,
      "##hai": 2522,
      "##Ơ": 2523,
      "ó": 2524,
      "John": 2525,
      "euro": 2526,
      "Úc": 2527,
      "like": 2528,
      "Lễ": 2529,
      "Thánh": 2530,
      "Br": 2531,
      "Ă": 2532,
      "##IM": 2533,
      "##be": 2534,
      "Go": 2535,
      "Điển": 2536,
      "PC": 2537,
      "Plus": 2538,
      "vò": 2539,
      "49": 2540,
      "Fi": 2541,
      "1471": 2542,
      "Danh": 2543,
      "gas": 2544,
      "album": 2545,
      "##ụy": 2546,
      "virus": 2547,
      "mí": 2548,
      "lõi": 2549,
      "Canada": 2550,
      "wa": 2551,
      "website": 2552,
      "Sĩ": 2553,
      "le": 2554,
      "##rì": 2555,
      "##tin": 2556,
      "ASEAN": 2557,
      "##at": 2558,
      "2005": 2559,
      "Ư": 2560,
      "Cl": 2561,
      "dé": 2562,
      "##po": 2563,
      "BC": 2564,
      "46": 2565,
      "Crimea": 2566,
      "##yes": 2567,
      "58": 2568,
      "lê": 2569,
      "Trịnh": 2570,
      "Mau": 2571,
      "link": 2572,
      "##con": 2573,
      "Â": 2574,
      "Can": 2575,
      "##game": 2576,
      "56": 2577,
      "##de": 2578,
      "Be": 2579,
      "iPad": 2580,
      "am": 2581,
      "##kk": 2582,
      "ne": 2583,
      "47": 2584,
      "Ramos": 2585,
      "##re": 2586,
      "##TS": 2587,
      "Lực": 2588,
      "##TV": 2589,
      "##rí": 2590,
      "pi": 2591,
      "vuông": 2592,
      "TB": 2593,
      "##ON": 2594,
      "54": 2595,
      "Roma": 2596,
      "CA": 2597,
      "2001": 2598,
      "FIFA": 2599,
      "oan": 2600,
      "##um": 2601,
      "Triệu": 2602,
      "ka": 2603,
      "wi": 2604,
      "Hang": 2605,
      "ế": 2606,
      "85": 2607,
      "090": 2608,
      "##AN": 2609,
      "##ce": 2610,
      "Alex": 2611,
      "##su": 2612,
      "##ml": 2613,
      "Op": 2614,
      "##US": 2615,
      "Phật": 2616,
      "##ọa": 2617,
      "Kong": 2618,
      "Ke": 2619,
      "##rez": 2620,
      "Đạo": 2621,
      "##line": 2622,
      "triều": 2623,
      "ky": 2624,
      "##ly": 2625,
      "vitamin": 2626,
      "##êt": 2627,
      "qué": 2628,
      "##và": 2629,
      "that": 2630,
      "##va": 2631,
      "CN": 2632,
      "##ga": 2633,
      "Thổ": 2634,
      "Air": 2635,
      "Size": 2636,
      "ye": 2637,
      "Kr": 2638,
      "soi": 2639,
      "##te": 2640,
      "Sua": 2641,
      "gay": 2642,
      "Indo": 2643,
      "##IA": 2644,
      "Ben": 2645,
      "XL": 2646,
      "##IN": 2647,
      "44": 2648,
      "Sai": 2649,
      "BA": 2650,
      "57": 2651,
      "2003": 2652,
      "250": 2653,
      "##qua": 2654,
      "##ks": 2655,
      "06": 2656,
      "Airlines": 2657,
      "098": 2658,
      "dum": 2659,
      "3G": 2660,
      "lung": 2661,
      "51": 2662,
      "1500": 2663,
      "##fe": 2664,
      "##min": 2665,
      "##xin": 2666,
      "Washington": 2667,
      "tot": 2668,
      "Zen": 2669,
      "Xã": 2670,
      "##Ờ": 2671,
      "golf": 2672,
      "Địa": 2673,
      "4000": 2674,
      "07": 2675,
      "SI": 2676,
      "CO": 2677,
      "##hay": 2678,
      "##il": 2679,
      "Se": 2680,
      "sex": 2681,
      "##ED": 2682,
      "##ang": 2683,
      "them": 2684,
      "Chin": 2685,
      "##tha": 2686,
      "Rooney": 2687,
      "##ovo": 2688,
      "VC": 2689,
      "HP": 2690,
      "Fa": 2691,
      "##au": 2692,
      "https": 2693,
      "rat": 2694,
      "##pa": 2695,
      "lui": 2696,
      "41": 2697,
      "Xiao": 2698,
      "##tu": 2699,
      "SL": 2700,
      "2002": 2701,
      "Sir": 2702,
      "1371": 2703,
      "Thạch": 2704,
      "Len": 2705,
      "093": 2706,
      "tháp": 2707,
      "##ank": 2708,
      "CT": 2709,
      "tao": 2710,
      "Pen": 2711,
      "Putin": 2712,
      "men": 2713,
      "Đất": 2714,
      "tò": 2715,
      "sé": 2716,
      "##is": 2717,
      "phone": 2718,
      "té": 2719,
      "##hah": 2720,
      "Sea": 2721,
      "ní": 2722,
      "Sp": 2723,
      "tua": 2724,
      "Conte": 2725,
      "##ID": 2726,
      "Bo": 2727,
      "MV": 2728,
      "##HA": 2729,
      "##Ộ": 2730,
      "my": 2731,
      "##ât": 2732,
      "##nap": 2733,
      "AS": 2734,
      "2020": 2735,
      "Le": 2736,
      "BV": 2737,
      "##cò": 2738,
      "##Ầ": 2739,
      "BK": 2740,
      "Myanmar": 2741,
      "lân": 2742,
      "##peri": 2743,
      "NA": 2744,
      "tuo": 2745,
      "##jn": 2746,
      "tem": 2747,
      "##kovic": 2748,
      "gai": 2749,
      "##el": 2750,
      "Fl": 2751,
      "ầ": 2752,
      "dam": 2753,
      "kt": 2754,
      "##nho": 2755,
      "hom": 2756,
      "##ee": 2757,
      "##2011": 2758,
      "ST": 2759,
      "Honda": 2760,
      "tie": 2761,
      "Ya": 2762,
      "Í": 2763,
      "khan": 2764,
      "##Ớ": 2765,
      "##Ề": 2766,
      "Kiến": 2767,
      "teen": 2768,
      "##gia": 2769,
      "email": 2770,
      "##xe": 2771,
      "ven": 2772,
      "GS": 2773,
      "taxi": 2774,
      "Cai": 2775,
      "Jo": 2776,
      "ù": 2777,
      "700": 2778,
      "##02": 2779,
      "West": 2780,
      "59": 2781,
      "Thần": 2782,
      "Tỉnh": 2783,
      "re": 2784,
      "IS": 2785,
      "hop": 2786,
      "James": 2787,
      "Pin": 2788,
      "Phía": 2789,
      "##hang": 2790,
      "##ni": 2791,
      "Camera": 2792,
      "Grand": 2793,
      "ss": 2794,
      "##ku": 2795,
      "Sol": 2796,
      "Pan": 2797,
      "##Ị": 2798,
      "Nguyen": 2799,
      "##lop": 2800,
      "Xô": 2801,
      "##ke": 2802,
      "##lu": 2803,
      "TS": 2804,
      "Smart": 2805,
      "##ắ": 2806,
      "Everton": 2807,
      "##CH": 2808,
      "hét": 2809,
      "62": 2810,
      "##qu": 2811,
      "Ủ": 2812,
      "##cel": 2813,
      "##pha": 2814,
      "AC": 2815,
      "##mà": 2816,
      "Perez": 2817,
      "micro": 2818,
      "Tên": 2819,
      "Cập": 2820,
      "Sung": 2821,
      "Lao": 2822,
      "Old": 2823,
      "Phone": 2824,
      "Live": 2825,
      "test": 2826,
      "##ot": 2827,
      "##chu": 2828,
      "63": 2829,
      "Tour": 2830,
      "RM": 2831,
      "Tot": 2832,
      "##HI": 2833,
      "Nhĩ": 2834,
      "Pel": 2835,
      "À": 2836,
      "##tra": 2837,
      "95": 2838,
      "USB": 2839,
      "##avi": 2840,
      "Costa": 2841,
      "##Ồ": 2842,
      "Sha": 2843,
      "io": 2844,
      "##hm": 2845,
      "##ker": 2846,
      "check": 2847,
      "##ip": 2848,
      "##im": 2849,
      "##jk": 2850,
      "lì": 2851,
      "Full": 2852,
      "##no": 2853,
      "##osi": 2854,
      "ri": 2855,
      "##ff": 2856,
      "##ht": 2857,
      "##dos": 2858,
      "NS": 2859,
      "Serie": 2860,
      "Michael": 2861,
      "Guard": 2862,
      "##iola": 2863,
      "110": 2864,
      "##send": 2865,
      "ton": 2866,
      "hac": 2867,
      "##hin": 2868,
      "El": 2869,
      "and": 2870,
      "te": 2871,
      "72": 2872,
      "Ars": 2873,
      "Sky": 2874,
      "Manchester": 2875,
      "ju": 2876,
      "##Ợ": 2877,
      "vun": 2878,
      "##Ể": 2879,
      "google": 2880,
      "##Ú": 2881,
      "Lá": 2882,
      "6000": 2883,
      "Sân": 2884,
      "thanks": 2885,
      "##KS": 2886,
      "Tôn": 2887,
      "##og": 2888,
      "##cho": 2889,
      "full": 2890,
      "Paul": 2891,
      "bal": 2892,
      "Tai": 2893,
      "CEO": 2894,
      "##iền": 2895,
      "##es": 2896,
      "Bank": 2897,
      "##rú": 2898,
      "68": 2899,
      "Kiev": 2900,
      "##zz": 2901,
      "côn": 2902,
      "##ship": 2903,
      "AP": 2904,
      "##2010": 2905,
      "##fford": 2906,
      "##ol": 2907,
      "##liga": 2908,
      "nan": 2909,
      "1990": 2910,
      "dia": 2911,
      "Vo": 2912,
      "III": 2913,
      "##per": 2914,
      "##ky": 2915,
      "##drag": 2916,
      "CK": 2917,
      "card": 2918,
      "##Ắ": 2919,
      "HS": 2920,
      "##or": 2921,
      "##fone": 2922,
      "Ex": 2923,
      "##HD": 2924,
      "file": 2925,
      "bun": 2926,
      "Luka": 2927,
      "UAE": 2928,
      "Twitter": 2929,
      "##Ủ": 2930,
      "Munich": 2931,
      "Lạc": 2932,
      "##pe": 2933,
      "Dortmund": 2934,
      "uk": 2935,
      "##eng": 2936,
      "##\\": 2937,
      "##ừu": 2938,
      "##nay": 2939,
      "Oscar": 2940,
      "##ric": 2941,
      "nuo": 2942,
      "sò": 2943,
      "sac": 2944,
      "##how": 2945,
      "tống": 2946,
      "##ura": 2947,
      "Mara": 2948,
      "69": 2949,
      "180": 2950,
      "##ja": 2951,
      "nok": 2952,
      "Mexico": 2953,
      "##cha": 2954,
      "##so": 2955,
      "Son": 2956,
      "Intel": 2957,
      "##iu": 2958,
      "##sk": 2959,
      "##ad": 2960,
      "##om": 2961,
      "66": 2962,
      "##me": 2963,
      "bin": 2964,
      "Video": 2965,
      "Chile": 2966,
      "Mat": 2967,
      "Jose": 2968,
      "Thank": 2969,
      "win": 2970,
      "##shi": 2971,
      "##ine": 2972,
      "ATM": 2973,
      "Tim": 2974,
      "##que": 2975,
      "bit": 2976,
      "Diego": 2977,
      "News": 2978,
      "Max": 2979,
      "##zard": 2980,
      "##òm": 2981,
      "##ut": 2982,
      "SG": 2983,
      "Israel": 2984,
      "Ky": 2985,
      "hat": 2986,
      "1200": 2987,
      "##oo": 2988,
      "67": 2989,
      "BB": 2990,
      "79": 2991,
      "MI": 2992,
      "ran": 2993,
      "##lan": 2994,
      "Beck": 2995,
      "Lạp": 2996,
      "fai": 2997,
      "##Ọ": 2998,
      "##thi": 2999,
      "Ad": 3000,
      "Món": 3001,
      "team": 3002,
      "##gs": 3003,
      "##mo": 3004,
      "hie": 3005,
      "78": 3006,
      "##xi": 3007,
      "DA": 3008,
      "LED": 3009,
      "096": 3010,
      "Je": 3011,
      "##io": 3012,
      "##rd": 3013,
      "Mod": 3014,
      "##dona": 3015,
      "##erry": 3016,
      "012": 3017,
      "Salah": 3018,
      "je": 3019,
      "Chao": 3020,
      "##bra": 3021,
      "Min": 3022,
      "loan": 3023,
      "HQ": 3024,
      "Sông": 3025,
      "Sun": 3026,
      "##nam": 3027,
      "Red": 3028,
      "##ih": 3029,
      "##esta": 3030,
      "flash": 3031,
      "##xit": 3032,
      "plus": 3033,
      "Game": 3034,
      "##DI": 3035,
      "##ep": 3036,
      "##yn": 3037,
      "Re": 3038,
      "##Ò": 3039,
      "AI": 3040,
      "tước": 3041,
      "đới": 3042,
      "sale": 3043,
      "##TC": 3044,
      "MA": 3045,
      "Ah": 3046,
      "pro": 3047,
      "Big": 3048,
      "##NT": 3049,
      "cap": 3050,
      "ắ": 3051,
      "UEFA": 3052,
      "Mark": 3053,
      "##ap": 3054,
      "##otti": 3055,
      "Pa": 3056,
      "Valencia": 3057,
      "ac": 3058,
      "##OR": 3059,
      "internet": 3060,
      "Dr": 3061,
      "DO": 3062,
      "California": 3063,
      "##ford": 3064,
      "##Ỉ": 3065,
      "##ur": 3066,
      "Model": 3067,
      "##ovi": 3068,
      "lien": 3069,
      "Ram": 3070,
      "MB": 3071,
      "##ea": 3072,
      "Maria": 3073,
      "##bu": 3074,
      "Ajax": 3075,
      "##uki": 3076,
      "##ex": 3077,
      "NT": 3078,
      "##Ã": 3079,
      "Hiến": 3080,
      "Nou": 3081,
      "PR": 3082,
      "Is": 3083,
      "up": 3084,
      "TC": 3085,
      "##Í": 3086,
      "Pl": 3087,
      "PG": 3088,
      "##ton": 3089,
      "Seo": 3090,
      "mun": 3091,
      "##TE": 3092,
      "##là": 3093,
      "Chúa": 3094,
      "83": 3095,
      "Fe": 3096,
      "Ku": 3097,
      "Jordan": 3098,
      "pe": 3099,
      "TM": 3100,
      "Leicester": 3101,
      "Super": 3102,
      "GDP": 3103,
      "##ber": 3104,
      "##ud": 3105,
      "Ini": 3106,
      "1998": 3107,
      "##it": 3108,
      "##may": 3109,
      "BS": 3110,
      "##ush": 3111,
      "BL": 3112,
      "Croatia": 3113,
      "160": 3114,
      "XI": 3115,
      "Copa": 3116,
      "Ja": 3117,
      "##IC": 3118,
      "Ham": 3119,
      "##TP": 3120,
      "Than": 3121,
      "Tokyo": 3122,
      "Toyota": 3123,
      "logo": 3124,
      "##oke": 3125,
      "Star": 3126,
      "Et": 3127,
      "Tre": 3128,
      "Moscow": 3129,
      "##men": 3130,
      "us": 3131,
      "76": 3132,
      "##ov": 3133,
      "dãy": 3134,
      "Del": 3135,
      "360": 3136,
      "Ji": 3137,
      "##oy": 3138,
      "##hán": 3139,
      "nai": 3140,
      "AM": 3141,
      "Mr": 3142,
      "Times": 3143,
      "Sanchez": 3144,
      "Asia": 3145,
      "LCD": 3146,
      "OL": 3147,
      "Tom": 3148,
      "130": 3149,
      "Tông": 3150,
      "Dell": 3151,
      "Ed": 3152,
      "##ey": 3153,
      "Home": 3154,
      "2500": 3155,
      "##ox": 3156,
      "350": 3157,
      "tour": 3158,
      "Ứ": 3159,
      "vành": 3160,
      "##CC": 3161,
      "Boeing": 3162,
      "gala": 3163,
      "900": 3164,
      "Mercedes": 3165,
      "##pp": 3166,
      "út": 3167,
      "61": 3168,
      "##É": 3169,
      "##nes": 3170,
      "125": 3171,
      "Bou": 3172,
      "##ig": 3173,
      "ren": 3174,
      "Môn": 3175,
      "1999": 3176,
      "Bit": 3177,
      "SJ": 3178,
      "Quận": 3179,
      "1997": 3180,
      "##oon": 3181,
      "She": 3182,
      "##mar": 3183,
      "##ii": 3184,
      "##uche": 3185,
      "que": 3186,
      "##đi": 3187,
      "##rt": 3188,
      "VP": 3189,
      "Hollywood": 3190,
      "Idol": 3191,
      "quyển": 3192,
      "Ship": 3193,
      "##za": 3194,
      "Italia": 3195,
      "##TO": 3196,
      "88": 3197,
      "82": 3198,
      "Nu": 3199,
      "fi": 3200,
      "##aw": 3201,
      "##zi": 3202,
      "lives": 3203,
      "Ci": 3204,
      "Luis": 3205,
      "F1": 3206,
      "Asian": 3207,
      "U2": 3208,
      "7000": 3209,
      "##ps": 3210,
      "BBC": 3211,
      "##Ă": 3212,
      "ID": 3213,
      "##by": 3214,
      "Shi": 3215,
      "Trump": 3216,
      "##ppe": 3217,
      "##sp": 3218,
      "Young": 3219,
      "Shin": 3220,
      "##ră": 3221,
      "C2": 3222,
      "Hot": 3223,
      "U20": 3224,
      "deal": 3225,
      "77": 3226,
      "you": 3227,
      "Cristiano": 3228,
      "ms": 3229,
      "##ll": 3230,
      "mic": 3231,
      "##cs": 3232,
      "LA": 3233,
      "penalty": 3234,
      "Mar": 3235,
      "##ema": 3236,
      "##ed": 3237,
      "##den": 3238,
      "128": 3239,
      "84": 3240,
      "GHz": 3241,
      "##tron": 3242,
      "SC": 3243,
      "Bangkok": 3244,
      "##cam": 3245,
      "##Ụ": 3246,
      "##ley": 3247,
      "IV": 3248,
      "Te": 3249,
      "##uti": 3250,
      "Benz": 3251,
      "Ye": 3252,
      "##UN": 3253,
      "73": 3254,
      "Ấ": 3255,
      "zi": 3256,
      "We": 3257,
      "##fan": 3258,
      "8000": 3259,
      "Los": 3260,
      "##400": 3261,
      "Ali": 3262,
      "Mala": 3263,
      "rang": 3264,
      "##xa": 3265,
      "hen": 3266,
      "##Ứ": 3267,
      "ex": 3268,
      "##pt": 3269,
      "##di": 3270,
      "Am": 3271,
      "74": 3272,
      "##rie": 3273,
      "ja": 3274,
      "MO": 3275,
      "##st": 3276,
      "##ru": 3277,
      "King": 3278,
      "Silva": 3279,
      "VL": 3280,
      "##app": 3281,
      "TO": 3282,
      "AT": 3283,
      "BMW": 3284,
      "Steve": 3285,
      "1994": 3286,
      "Chan": 3287,
      "##NP": 3288,
      "##ban": 3289,
      "Fu": 3290,
      "App": 3291,
      "Ukraina": 3292,
      "1992": 3293,
      "##ah": 3294,
      "it": 3295,
      "Ve": 3296,
      "##DC": 3297,
      "SA": 3298,
      "Villa": 3299,
      "##hy": 3300,
      "Berna": 3301,
      "##ook": 3302,
      "Yan": 3303,
      "SU": 3304,
      "1900": 3305,
      "FC": 3306,
      "Qatar": 3307,
      "##ok": 3308,
      "mail": 3309,
      "750": 3310,
      "China": 3311,
      "opp": 3312,
      "##EN": 3313,
      "blue": 3314,
      "##gio": 3315,
      "##Ặ": 3316,
      "Miss": 3317,
      "kara": 3318,
      "##yo": 3319,
      "Tech": 3320,
      "81": 3321,
      "##omi": 3322,
      "86": 3323,
      "scandal": 3324,
      "EV": 3325,
      "OS": 3326,
      "1996": 3327,
      "Ố": 3328,
      "##son": 3329,
      "Don": 3330,
      "##cu": 3331,
      "1995": 3332,
      "Ferguson": 3333,
      "Martin": 3334,
      "Ver": 3335,
      "HIV": 3336,
      "Monaco": 3337,
      "qui": 3338,
      "98": 3339,
      "jo": 3340,
      "##nha": 3341,
      "if": 3342,
      "##Pa": 3343,
      "Ibrahim": 3344,
      "##Ữ": 3345,
      "sea": 3346,
      "Zealand": 3347,
      "Han": 3348,
      "AFC": 3349,
      "105": 3350,
      "sua": 3351,
      "89": 3352,
      "##IE": 3353,
      "##ak": 3354,
      "Ford": 3355,
      "71": 3356,
      "CV": 3357,
      "DC": 3358,
      "##ux": 3359,
      "Bill": 3360,
      "chuồn": 3361,
      "bl": 3362,
      "##EC": 3363,
      "##kak": 3364,
      "##900": 3365,
      "Bluetooth": 3366,
      "220": 3367,
      "595": 3368,
      "cat": 3369,
      "##ián": 3370,
      "Só": 3371,
      "Open": 3372,
      "##mail": 3373,
      "Slam": 3374,
      "Sevilla": 3375,
      "table": 3376,
      "body": 3377,
      "Win": 3378,
      "Mata": 3379,
      "Ab": 3380,
      "Lục": 3381,
      "##HT": 3382,
      "Oz": 3383,
      "Hyun": 3384,
      "PL": 3385,
      "981": 3386,
      "Ferrari": 3387,
      "NATO": 3388,
      "##rin": 3389,
      "play": 3390,
      "On": 3391,
      "##RO": 3392,
      "CD": 3393,
      "Var": 3394,
      "dua": 3395,
      "ngan": 3396,
      "ar": 3397,
      "Henry": 3398,
      "##Ừ": 3399,
      "Yu": 3400,
      "##lea": 3401,
      "Europa": 3402,
      "##inho": 3403,
      "Robert": 3404,
      "zen": 3405,
      "ISS": 3406,
      "##ou": 3407,
      "Thomas": 3408,
      "EM": 3409,
      "##lli": 3410,
      "nic": 3411,
      "##DA": 3412,
      "Mobile": 3413,
      "Cor": 3414,
      "massa": 3415,
      "SP": 3416,
      "##lco": 3417,
      "Mer": 3418,
      "Tần": 3419,
      "Dan": 3420,
      "neo": 3421,
      "##TD": 3422,
      "Anti": 3423,
      "Vai": 3424,
      "1982": 3425,
      "Pakistan": 3426,
      "radar": 3427,
      "##AT": 3428,
      "Un": 3429,
      "ji": 3430,
      "sl": 3431,
      "hạm": 3432,
      "##ys": 3433,
      "tv": 3434,
      "##berg": 3435,
      "##the": 3436,
      "bus": 3437,
      "Core": 3438,
      "Đế": 3439,
      "Jan": 3440,
      "1991": 3441,
      "##ath": 3442,
      "gen": 3443,
      "##dan": 3444,
      "Wales": 3445,
      "##Ù": 3446,
      "IT": 3447,
      "1993": 3448,
      "##ien": 3449,
      "##guer": 3450,
      "094": 3451,
      "Sport": 3452,
      "##TA": 3453,
      "led": 3454,
      "Men": 3455,
      "GA": 3456,
      "robot": 3457,
      "add": 3458,
      "##box": 3459,
      "1980": 3460,
      "##vy": 3461,
      "ậ": 3462,
      "Simeon": 3463,
      "##ter": 3464,
      "Pers": 3465,
      "##vne": 3466,
      "Group": 3467,
      "115": 3468,
      "gang": 3469,
      "CM": 3470,
      "##bed": 3471,
      "##ova": 3472,
      "Jong": 3473,
      "zin": 3474,
      "miêu": 3475,
      "##siz": 3476,
      "VQ": 3477,
      "out": 3478,
      "Thai": 3479,
      "##SD": 3480,
      "girl": 3481,
      "Dy": 3482,
      "##ji": 3483,
      "##nó": 3484,
      "##pi": 3485,
      "gie": 3486,
      "Napoli": 3487,
      "hoc": 3488,
      "Daily": 3489,
      "Newcastle": 3490,
      "135": 3491,
      "hp": 3492,
      "##HL": 3493,
      "Mông": 3494,
      "KO": 3495,
      "Canon": 3496,
      "bat": 3497,
      "2x": 3498,
      "##tan": 3499,
      "##rò": 3500,
      "fa": 3501,
      "Harry": 3502,
      "Bird": 3503,
      "Val": 3504,
      "val": 3505,
      "##ju": 3506,
      "140": 3507,
      "##field": 3508,
      "Play": 3509,
      "##Ự": 3510,
      "##ara": 3511,
      "##kin": 3512,
      "Jennifer": 3513,
      "96": 3514,
      "Car": 3515,
      "dặm": 3516,
      "##kha": 3517,
      "S1": 3518,
      "edge": 3519,
      "##mon": 3520,
      "KC": 3521,
      "Nan": 3522,
      "##$": 3523,
      "lag": 3524,
      "92": 3525,
      "Media": 3526,
      "Pr": 3527,
      "##éc": 3528,
      "87": 3529,
      "Anna": 3530,
      "Ú": 3531,
      "Oh": 3532,
      "170": 3533,
      "##as": 3534,
      "##ram": 3535,
      "ATP": 3536,
      "Mas": 3537,
      "protein": 3538,
      "ỏ": 3539,
      "650": 3540,
      "YouTube": 3541,
      "Hien": 3542,
      "Instagram": 3543,
      "tennis": 3544,
      "##ene": 3545,
      "Justin": 3546,
      "Ao": 3547,
      "Mora": 3548,
      "că": 3549,
      "world": 3550,
      "self": 3551,
      "George": 3552,
      "##ei": 3553,
      "And": 3554,
      "##AV": 3555,
      "##MC": 3556,
      "TD": 3557,
      "Bundesliga": 3558,
      "Sub": 3559,
      "##ls": 3560,
      "ket": 3561,
      "fans": 3562,
      "Dem": 3563,
      "##wo": 3564,
      "##land": 3565,
      "##out": 3566,
      "##ze": 3567,
      "Sar": 3568,
      "450": 3569,
      "Jack": 3570,
      "Bridge": 3571,
      "Scotland": 3572,
      "Neu": 3573,
      "Sim": 3574,
      "$": 3575,
      "##sen": 3576,
      "Louis": 3577,
      "##ock": 3578,
      "##tam": 3579,
      "Online": 3580,
      "ten": 3581,
      "KS": 3582,
      "##ss": 3583,
      "rêu": 3584,
      "Fashion": 3585,
      "break": 3586,
      "dug": 3587,
      "series": 3588,
      "Né": 3589,
      "##play": 3590,
      "SO": 3591,
      "Zu": 3592,
      "youtube": 3593,
      "##Ẩ": 3594,
      "HK": 3595,
      "550": 3596,
      "##ac": 3597,
      "777": 3598,
      "##rini": 3599,
      "indo": 3600,
      "##AR": 3601,
      "##tique": 3602,
      "1800": 3603,
      "Tan": 3604,
      "Ras": 3605,
      "All": 3606,
      "##ner": 3607,
      "Daniel": 3608,
      "MS": 3609,
      "##oth": 3610,
      "##bit": 3611,
      "Seoul": 3612,
      "Victoria": 3613,
      "contain": 3614,
      "IM": 3615,
      "##las": 3616,
      "##gon": 3617,
      "som": 3618,
      "Angeles": 3619,
      "##ax": 3620,
      "Ireland": 3621,
      "Bay": 3622,
      "##rede": 3623,
      "Taylor": 3624,
      "##mua": 3625,
      "Angela": 3626,
      "MT": 3627,
      "Peter": 3628,
      "##du": 3629,
      "Juan": 3630,
      "Nick": 3631,
      "stress": 3632,
      "##gri": 3633,
      "Murray": 3634,
      "You": 3635,
      "park": 3636,
      "##erra": 3637,
      "##sil": 3638,
      "U21": 3639,
      "##der": 3640,
      "Kane": 3641,
      "720": 3642,
      "##wa": 3643,
      "##bala": 3644,
      "##gen": 3645,
      "hien": 3646,
      "Southampton": 3647,
      "Youtube": 3648,
      "visa": 3649,
      "##SH": 3650,
      "##ct": 3651,
      "##my": 3652,
      "Bon": 3653,
      "Johnson": 3654,
      "##lon": 3655,
      "##uko": 3656,
      "##iet": 3657,
      "##nga": 3658,
      "##MP": 3659,
      "update": 3660,
      "Kuala": 3661,
      "##zu": 3662,
      "##lick": 3663,
      "##gua": 3664,
      "Time": 3665,
      "Garden": 3666,
      "Dong": 3667,
      "Mini": 3668,
      "##BC": 3669,
      "car": 3670,
      "ụ": 3671,
      "NE": 3672,
      "Din": 3673,
      "##TM": 3674,
      "##TB": 3675,
      "Carlos": 3676,
      "##zmann": 3677,
      "1988": 3678,
      "Malay": 3679,
      "##rong": 3680,
      "xx": 3681,
      "kn": 3682,
      "##AL": 3683,
      "Afghanistan": 3684,
      "for": 3685,
      "Amazon": 3686,
      "Bal": 3687,
      "Os": 3688,
      "##ts": 3689,
      "să": 3690,
      "Rio": 3691,
      "RE": 3692,
      "Face": 3693,
      "300000": 3694,
      "Ronald": 3695,
      "##ina": 3696,
      "AD": 3697,
      "##pro": 3698,
      "Jones": 3699,
      "Lei": 3700,
      "##set": 3701,
      "Chris": 3702,
      "##phon": 3703,
      "lua": 3704,
      "Touch": 3705,
      "##lk": 3706,
      "copy": 3707,
      "##off": 3708,
      "##lin": 3709,
      "##rung": 3710,
      "ừ": 3711,
      "##ido": 3712,
      "##ler": 3713,
      "1600": 3714,
      "main": 3715,
      "##eo": 3716,
      "##gan": 3717,
      "##ech": 3718,
      "zoo": 3719,
      "Lionel": 3720,
      "101": 3721,
      "##ico": 3722,
      "Lumpur": 3723,
      "Barack": 3724,
      "##IS": 3725,
      "##lla": 3726,
      "##port": 3727,
      "at": 3728,
      "PA": 3729,
      "or": 3730,
      "1986": 3731,
      "Porto": 3732,
      "Yun": 3733,
      "Uruguay": 3734,
      "##leg": 3735,
      "##ye": 3736,
      "Colombia": 3737,
      "210": 3738,
      "##we": 3739,
      "Vladimir": 3740,
      "##res": 3741,
      "##oun": 3742,
      "wave": 3743,
      "##lse": 3744,
      "Sergio": 3745,
      "1989": 3746,
      "pk": 3747,
      "SD": 3748,
      "##cker": 3749,
      "##ek": 3750,
      "Bus": 3751,
      "Fox": 3752,
      "lac": 3753,
      "www": 3754,
      "##nd": 3755,
      "##pard": 3756,
      "DVD": 3757,
      "dieu": 3758,
      "##vo": 3759,
      "##hed": 3760,
      "CPU": 3761,
      "Huyện": 3762,
      "Ce": 3763,
      "##vas": 3764,
      "##gue": 3765,
      "##nami": 3766,
      "Williams": 3767,
      "##ason": 3768,
      "Com": 3769,
      "A1": 3770,
      "Hán": 3771,
      "Kit": 3772,
      "DS": 3773,
      "Valentine": 3774,
      "Love": 3775,
      "Show": 3776,
      "Cook": 3777,
      "##tric": 3778,
      "Wimbledon": 3779,
      "ò": 3780,
      "##ron": 3781,
      "Wall": 3782,
      "Bro": 3783,
      "##berry": 3784,
      "##OK": 3785,
      "NO": 3786,
      "US": 3787,
      "1970": 3788,
      "Alves": 3789,
      "##tar": 3790,
      "##hom": 3791,
      "97": 3792,
      "Sunderland": 3793,
      "##oos": 3794,
      "##rán": 3795,
      "##ote": 3796,
      "AR": 3797,
      "um": 3798,
      "##gh": 3799,
      "##tru": 3800,
      "Masters": 3801,
      "gap": 3802,
      "##har": 3803,
      "Kevin": 3804,
      "vien": 3805,
      "##Ử": 3806,
      "ruồi": 3807,
      "SM": 3808,
      "##nt": 3809,
      "##OL": 3810,
      "PM": 3811,
      "##che": 3812,
      "Motorola": 3813,
      "Mk": 3814,
      "##gu": 3815,
      "93": 3816,
      "Bush": 3817,
      "##ans": 3818,
      "##Ổ": 3819,
      "##oe": 3820,
      "Bang": 3821,
      "Petro": 3822,
      "##EL": 3823,
      "##Ẹ": 3824,
      "Jobs": 3825,
      "##ec": 3826,
      "Aston": 3827,
      "TU": 3828,
      "Palace": 3829,
      "##IP": 3830,
      "form": 3831,
      "Az": 3832,
      "##bin": 3833,
      "Jin": 3834,
      "##rick": 3835,
      "##nali": 3836,
      "Cel": 3837,
      "##ny": 3838,
      "America": 3839,
      "PE": 3840,
      "##mu": 3841,
      "Serena": 3842,
      "Inc": 3843,
      "Vita": 3844,
      "po": 3845,
      "William": 3846,
      "Kar": 3847,
      "Set": 3848,
      "Die": 3849,
      "marketing": 3850,
      "Gold": 3851,
      "Ultra": 3852,
      "Hamilton": 3853,
      "##dy": 3854,
      "Post": 3855,
      "##MI": 3856,
      "Ryan": 3857,
      "##đa": 3858,
      "Torres": 3859,
      "Joe": 3860,
      "##page": 3861,
      "doc": 3862,
      "Lang": 3863,
      "Stamford": 3864,
      "165": 3865,
      "##ard": 3866,
      "Nigeria": 3867,
      "106": 3868,
      "Roberto": 3869,
      "##ngo": 3870,
      "BP": 3871,
      "##BS": 3872,
      "Soo": 3873,
      "Ying": 3874,
      "##SS": 3875,
      "Green": 3876,
      "108": 3877,
      "##LA": 3878,
      "GP": 3879,
      "IN": 3880,
      "Blue": 3881,
      "DI": 3882,
      "##ist": 3883,
      "##ick": 3884,
      "##ion": 3885,
      "##HS": 3886,
      "Wei": 3887,
      "1300": 3888,
      "Like": 3889,
      "Day": 3890,
      "1100": 3891,
      "ME": 3892,
      "Won": 3893,
      "103": 3894,
      "Audi": 3895,
      "Watch": 3896,
      "102": 3897,
      "Venezuela": 3898,
      "Soc": 3899,
      "Chat": 3900,
      "##real": 3901,
      "##bre": 3902,
      "380": 3903,
      "Giro": 3904,
      "ay": 3905,
      "Mal": 3906,
      "##rou": 3907,
      "##ngu": 3908,
      "Phil": 3909,
      "##OT": 3910,
      "IC": 3911,
      "630": 3912,
      "bướm": 3913,
      "##pop": 3914,
      "Wo": 3915,
      "MP": 3916,
      "Woods": 3917,
      "##ms": 3918,
      "SV": 3919,
      "##bab": 3920,
      "9000": 3921,
      "##ae": 3922,
      "one": 3923,
      "Marcelo": 3924,
      "320": 3925,
      "Richard": 3926,
      "quai": 3927,
      "##ruz": 3928,
      "oa": 3929,
      "BD": 3930,
      "##mit": 3931,
      "240": 3932,
      "1987": 3933,
      "##vani": 3934,
      "##pan": 3935,
      "##od": 3936,
      "EP": 3937,
      "mix": 3938,
      "Sterling": 3939,
      "##agen": 3940,
      "lock": 3941,
      "cotton": 3942,
      "Pepe": 3943,
      "##lv": 3944,
      "BM": 3945,
      "by": 3946,
      "A7": 3947,
      "##cao": 3948,
      "pass": 3949,
      "off": 3950,
      "laser": 3951,
      "##rá": 3952,
      "Terry": 3953,
      "Nm": 3954,
      "Flores": 3955,
      "730": 3956,
      "ido": 3957,
      "1400": 3958,
      "Sur": 3959,
      "Voice": 3960,
      "made": 3961,
      "Ak": 3962,
      "##mp": 3963,
      "Au": 3964,
      "Rome": 3965,
      "VG": 3966,
      "FL": 3967,
      "Roger": 3968,
      "league": 3969,
      "bass": 3970,
      "##lí": 3971,
      "##kov": 3972,
      "3500": 3973,
      "Power": 3974,
      "91": 3975,
      "RA": 3976,
      "Donetsk": 3977,
      "Good": 3978,
      "Nas": 3979,
      "Yo": 3980,
      "Mail": 3981,
      "En": 3982,
      "Mega": 3983,
      "NN": 3984,
      "640": 3985,
      "##stor": 3986,
      "##vang": 3987,
      "##cci": 3988,
      "##CL": 3989,
      "##tro": 3990,
      "##aha": 3991,
      "VS": 3992,
      "CB": 3993,
      "Hussein": 3994,
      "##ois": 3995,
      "155": 3996,
      "tat": 3997,
      "Chip": 3998,
      "Mike": 3999,
      "Yamaha": 4000,
      "Dai": 4001,
      "##Ở": 4002,
      "##rap": 4003,
      "Mario": 4004,
      "##iare": 4005,
      "##ir": 4006,
      "##Ỏ": 4007,
      "##SE": 4008,
      "##dung": 4009,
      "Wang": 4010,
      "Crystal": 4011,
      "##can": 4012,
      "##ul": 4013,
      "Alonso": 4014,
      "##gt": 4015,
      "##cc": 4016,
      "Carr": 4017,
      "PP": 4018,
      "##sma": 4019,
      "love": 4020,
      "Leo": 4021,
      "##MA": 4022,
      "Tiger": 4023,
      "Sports": 4024,
      "##yu": 4025,
      "##cup": 4026,
      "hatt": 4027,
      "512": 4028,
      "Frank": 4029,
      "1A": 4030,
      "##din": 4031,
      "mala": 4032,
      "247": 4033,
      "##hak": 4034,
      "94": 4035,
      "Lin": 4036,
      "##ain": 4037,
      "##gda": 4038,
      "Kate": 4039,
      "Or": 4040,
      "#": 4041,
      "##roi": 4042,
      "##gas": 4043,
      "1975": 4044,
      "##rs": 4045,
      "930": 4046,
      "##cca": 4047,
      "A8": 4048,
      "we": 4049,
      "cal": 4050,
      "##oz": 4051,
      "post": 4052,
      "Alexander": 4053,
      "International": 4054,
      "Awards": 4055,
      "ap": 4056,
      "Best": 4057,
      "##house": 4058,
      "##2000": 4059,
      "##IV": 4060,
      "Cole": 4061,
      "##ieu": 4062,
      "##ping": 4063,
      "##zo": 4064,
      "##ati": 4065,
      "1984": 4066,
      "Palestine": 4067,
      "lieu": 4068,
      "hit": 4069,
      "##IT": 4070,
      "1985": 4071,
      "Ken": 4072,
      "Free": 4073,
      "##RA": 4074,
      "GM": 4075,
      "##RE": 4076,
      "##ET": 4077,
      "##ddin": 4078,
      "##tel": 4079,
      "liver": 4080,
      "House": 4081,
      "Há": 4082,
      "100m": 4083,
      "##san": 4084,
      "ml": 4085,
      "##yan": 4086,
      "rock": 4087,
      "##nce": 4088,
      "##phi": 4089,
      "1960": 4090,
      "##Ũ": 4091,
      "Ty": 4092,
      "##rang": 4093,
      "derby": 4094,
      "Mad": 4095,
      "A3": 4096,
      "solo": 4097,
      "##nu": 4098,
      "Adam": 4099,
      "Nikon": 4100,
      "##ER": 4101,
      "##OC": 4102,
      "mít": 4103,
      "Jean": 4104,
      "116": 4105,
      "520": 4106,
      "át": 4107,
      "1520": 4108,
      "##pool": 4109,
      "Cuba": 4110,
      "##ns": 4111,
      "Ol": 4112,
      "##tore": 4113,
      "##EM": 4114,
      "Czech": 4115,
      "max": 4116,
      "##ble": 4117,
      "Cat": 4118,
      "Sharp": 4119,
      "Carlo": 4120,
      "109": 4121,
      "South": 4122,
      "Antonio": 4123,
      "##vu": 4124,
      "##pu": 4125,
      "bot": 4126,
      "nadal": 4127,
      "##hs": 4128,
      "Loài": 4129,
      "Hari": 4130,
      "##oh": 4131,
      "Tony": 4132,
      "box": 4133,
      "##pin": 4134,
      "blog": 4135,
      "##ghe": 4136,
      "ae": 4137,
      "##VI": 4138,
      "##naldo": 4139,
      "Yang": 4140,
      "##CA": 4141,
      "##mau": 4142,
      "##af": 4143,
      "##UI": 4144,
      "Yemen": 4145,
      "256": 4146,
      "ua": 4147,
      "##car": 4148,
      "##tt": 4149,
      "tab": 4150,
      "Carl": 4151,
      "Ron": 4152,
      "##ez": 4153,
      "##des": 4154,
      "##ft": 4155,
      "Baby": 4156,
      "DH": 4157,
      "Court": 4158,
      "##ane": 4159,
      "Auto": 4160,
      "##vic": 4161,
      "A5": 4162,
      "Yahoo": 4163,
      "sm": 4164,
      "Beauty": 4165,
      "Sent": 4166,
      "330": 4167,
      "##lus": 4168,
      "logic": 4169,
      "om": 4170,
      "##hien": 4171,
      "Club": 4172,
      "live": 4173,
      "##ten": 4174,
      "##Ĩ": 4175,
      "##oit": 4176,
      "Land": 4177,
      "Rai": 4178,
      "UN": 4179,
      "##hot": 4180,
      "##ube": 4181,
      "Martino": 4182,
      "365": 4183,
      "##won": 4184,
      "##KI": 4185,
      "1280": 4186,
      "Gala": 4187,
      "EC": 4188,
      "Serbia": 4189,
      "Spa": 4190,
      "store": 4191,
      "119": 4192,
      "kit": 4193,
      "##ola": 4194,
      "good": 4195,
      "AK": 4196,
      "##xu": 4197,
      "Cúc": 4198,
      "Andy": 4199,
      "Sing": 4200,
      "370": 4201,
      "SAM": 4202,
      "230": 4203,
      "Phổ": 4204,
      "ser": 4205,
      "280": 4206,
      "THE": 4207,
      "Robb": 4208,
      "gram": 4209,
      "Tun": 4210,
      "##sin": 4211,
      "##ster": 4212,
      "dag": 4213,
      "##ía": 4214,
      "cn": 4215,
      "windows": 4216,
      "CNN": 4217,
      "Libya": 4218,
      "##ish": 4219,
      "sum": 4220,
      "MTV": 4221,
      "Berlin": 4222,
      "000": 4223,
      "Tống": 4224,
      "Arena": 4225,
      "is": 4226,
      "##nas": 4227,
      "##rom": 4228,
      "Philip": 4229,
      "Dubai": 4230,
      "##hea": 4231,
      "Lopez": 4232,
      "ot": 4233,
      "Golf": 4234,
      "104": 4235,
      "Iceland": 4236,
      "Blues": 4237,
      "ADN": 4238,
      "Ole": 4239,
      "liga": 4240,
      "iu": 4241,
      "Disney": 4242,
      "Kerry": 4243,
      "XP": 4244,
      "Moto": 4245,
      "##ian": 4246,
      "Enrique": 4247,
      "##kini": 4248,
      "Har": 4249,
      "Lazio": 4250,
      "It": 4251,
      "XX": 4252,
      "Roy": 4253,
      "rep": 4254,
      "Emirates": 4255,
      "##bele": 4256,
      "White": 4257,
      "113": 4258,
      "Đậu": 4259,
      "##ST": 4260,
      "Festival": 4261,
      "Seri": 4262,
      "1983": 4263,
      "##and": 4264,
      "Uzbekistan": 4265,
      "##tri": 4266,
      "CC": 4267,
      "hero": 4268,
      "Smith": 4269,
      "##ers": 4270,
      "480": 4271,
      "Tae": 4272,
      "Gareth": 4273,
      "Jung": 4274,
      "Bayer": 4275,
      "Lew": 4276,
      "Par": 4277,
      "##LE": 4278,
      "340": 4279,
      "175": 4280,
      "Rập": 4281,
      "850": 4282,
      "Per": 4283,
      "Lac": 4284,
      "die": 4285,
      "##viet": 4286,
      "Des": 4287,
      "##oli": 4288,
      "Las": 4289,
      "vest": 4290,
      "##chet": 4291,
      "Access": 4292,
      "##don": 4293,
      "end": 4294,
      "yo": 4295,
      "Noel": 4296,
      "Next": 4297,
      "Garcia": 4298,
      "##rol": 4299,
      "Bloomberg": 4300,
      "ET": 4301,
      "##eal": 4302,
      "Rodgers": 4303,
      "420": 4304,
      "Mirror": 4305,
      "Fulham": 4306,
      "##sky": 4307,
      "Peru": 4308,
      "Mary": 4309,
      "pop": 4310,
      "Rose": 4311,
      "##GA": 4312,
      "MMA": 4313,
      "Kan": 4314,
      "Rafael": 4315,
      "225": 4316,
      "met": 4317,
      "211": 4318,
      "##iem": 4319,
      "Donald": 4320,
      "Clinton": 4321,
      "sil": 4322,
      "France": 4323,
      "Lady": 4324,
      "quo": 4325,
      "##ana": 4326,
      "##able": 4327,
      "rom": 4328,
      "##TH": 4329,
      "Ze": 4330,
      "Jang": 4331,
      "Pre": 4332,
      "Lyon": 4333,
      "##EA": 4334,
      "Texas": 4335,
      "sir": 4336,
      "Ele": 4337,
      "Thailand": 4338,
      "asus": 4339,
      "két": 4340,
      "##ves": 4341,
      "2022": 4342,
      "##zen": 4343,
      "Pedro": 4344,
      "##ity": 4345,
      "Acer": 4346,
      "Kun": 4347,
      "##nco": 4348,
      "Brad": 4349,
      "##ail": 4350,
      "Sydney": 4351,
      "Cool": 4352,
      "##plus": 4353,
      "1700": 4354,
      "coll": 4355,
      "Pat": 4356,
      "##eon": 4357,
      "carbon": 4358,
      "Kom": 4359,
      "gene": 4360,
      "Scott": 4361,
      "##ent": 4362,
      "sí": 4363,
      "pan": 4364,
      "bon": 4365,
      "status": 4366,
      "950": 4367,
      "##GI": 4368,
      "ou": 4369,
      "##AM": 4370,
      "Brunei": 4371,
      "##bar": 4372,
      "start": 4373,
      "##aa": 4374,
      "##ich": 4375,
      "Sami": 4376,
      "Nexus": 4377,
      "##hua": 4378,
      "##tai": 4379,
      "##van": 4380,
      "##kem": 4381,
      "##ran": 4382,
      "Charles": 4383,
      "Cap": 4384,
      "Bat": 4385,
      "DJ": 4386,
      "##if": 4387,
      "##Ẽ": 4388,
      "Abe": 4389,
      "##ew": 4390,
      "Street": 4391,
      "##AC": 4392,
      "##hon": 4393,
      "Es": 4394,
      "Edge": 4395,
      "mobile": 4396,
      "Raul": 4397,
      "Baghdad": 4398,
      "##ver": 4399,
      "##ject": 4400,
      "Gates": 4401,
      "Bet": 4402,
      "Master": 4403,
      "##lou": 4404,
      "Woo": 4405,
      "123": 4406,
      "Roland": 4407,
      "Gian": 4408,
      "War": 4409,
      "##break": 4410,
      "ISO": 4411,
      "Vid": 4412,
      "##of": 4413,
      "##tino": 4414,
      "##BA": 4415,
      "Lay": 4416,
      "##uk": 4417,
      "190": 4418,
      "Fr": 4419,
      "MW": 4420,
      "##UP": 4421,
      "Eric": 4422,
      "order": 4423,
      "##NC": 4424,
      "Nem": 4425,
      "##NE": 4426,
      "Para": 4427,
      "Ale": 4428,
      "mag": 4429,
      "##sd": 4430,
      "##das": 4431,
      "Mate": 4432,
      "##chat": 4433,
      "##ue": 4434,
      "M2": 4435,
      "Forbes": 4436,
      "285": 4437,
      "##chen": 4438,
      "##asi": 4439,
      "RI": 4440,
      "Hungary": 4441,
      "SK": 4442,
      "air": 4443,
      "then": 4444,
      "##dh": 4445,
      "Bas": 4446,
      "st": 4447,
      "1974": 4448,
      "##vez": 4449,
      "1950": 4450,
      "Bai": 4451,
      "##ski": 4452,
      "Life": 4453,
      "Steven": 4454,
      "Global": 4455,
      "MSN": 4456,
      "Ferdinand": 4457,
      "Hyundai": 4458,
      "iPod": 4459,
      "##hel": 4460,
      "##awa": 4461,
      "Far": 4462,
      "##llo": 4463,
      "112": 4464,
      "ờ": 4465,
      "Ball": 4466,
      "##room": 4467,
      "##zada": 4468,
      "##lay": 4469,
      "Rock": 4470,
      "Championship": 4471,
      "145": 4472,
      "SB": 4473,
      "ira": 4474,
      "Vettel": 4475,
      "PT": 4476,
      "239": 4477,
      "##ichi": 4478,
      "VIP": 4479,
      "NP": 4480,
      "date": 4481,
      "##pli": 4482,
      "##ibe": 4483,
      "##CT": 4484,
      "Pla": 4485,
      "##AS": 4486,
      "##SA": 4487,
      "Saint": 4488,
      "TK": 4489,
      "Sri": 4490,
      "nem": 4491,
      "##ggio": 4492,
      "Christian": 4493,
      "##ime": 4494,
      "107": 4495,
      "999": 4496,
      "##hole": 4497,
      "CE": 4498,
      "##eta": 4499,
      "Hart": 4500,
      "sor": 4501,
      "Lea": 4502,
      "Tao": 4503,
      "NL": 4504,
      "260": 4505,
      "##nac": 4506,
      "Telegraph": 4507,
      "##lam": 4508,
      "china": 4509,
      "184": 4510,
      "##ando": 4511,
      "##tero": 4512,
      "##are": 4513,
      "Music": 4514,
      "##tà": 4515,
      "##pic": 4516,
      "FBI": 4517,
      "dem": 4518,
      "##wi": 4519,
      "Im": 4520,
      "Fuji": 4521,
      "MIT": 4522,
      "##way": 4523,
      "4500": 4524,
      "ẵ": 4525,
      "Chen": 4526,
      "1080": 4527,
      "##ridge": 4528,
      "games": 4529,
      "mode": 4530,
      "Gear": 4531,
      "##CI": 4532,
      "bird": 4533,
      "##fo": 4534,
      "Web": 4535,
      "Ala": 4536,
      "University": 4537,
      "##rio": 4538,
      "Deportivo": 4539,
      "##clo": 4540,
      "##AP": 4541,
      "##ffet": 4542,
      "Wayne": 4543,
      "Sociedad": 4544,
      "duc": 4545,
      "Surface": 4546,
      "Alan": 4547,
      "Martial": 4548,
      "Porsche": 4549,
      "1981": 4550,
      "Norwich": 4551,
      "Florida": 4552,
      "baby": 4553,
      "##sal": 4554,
      "Medvedev": 4555,
      "Ny": 4556,
      "217": 4557,
      "Ana": 4558,
      "Suzuki": 4559,
      "Swansea": 4560,
      "Ves": 4561,
      "##má": 4562,
      "Rolls": 4563,
      "Angelina": 4564,
      "dx": 4565,
      "##art": 4566,
      "##quet": 4567,
      "Shaw": 4568,
      "ì": 4569,
      "117": 4570,
      "Mel": 4571,
      "Villar": 4572,
      "199": 4573,
      "Fans": 4574,
      "##ix": 4575,
      "tone": 4576,
      "AL": 4577,
      "Lex": 4578,
      "1979": 4579,
      "Dis": 4580,
      "Andre": 4581,
      "Dec": 4582,
      "Kant": 4583,
      "##lip": 4584,
      "##card": 4585,
      "Gary": 4586,
      "Stoke": 4587,
      "sat": 4588,
      "Ser": 4589,
      "Toni": 4590,
      "##est": 4591,
      "Lamborghini": 4592,
      "Latin": 4593,
      "Jolie": 4594,
      "##well": 4595,
      "Jon": 4596,
      "Geneva": 4597,
      "Cali": 4598,
      "ray": 4599,
      "##wan": 4600,
      "Beni": 4601,
      "Fell": 4602,
      "Dream": 4603,
      "city": 4604,
      "Ros": 4605,
      "Sy": 4606,
      "Nad": 4607,
      "Saddam": 4608,
      "##wski": 4609,
      "Hung": 4610,
      "Andrea": 4611,
      "Tur": 4612,
      "Block": 4613,
      "Martinez": 4614,
      "time": 4615,
      "Robin": 4616,
      "##rlo": 4617,
      "American": 4618,
      "##ore": 4619,
      "WP": 4620,
      "hormone": 4621,
      "sg": 4622,
      "dell": 4623,
      "##uan": 4624,
      "##walk": 4625,
      "Series": 4626,
      "##ware": 4627,
      "Ten": 4628,
      "##ngan": 4629,
      "op": 4630,
      "##ome": 4631,
      "lens": 4632,
      "##SC": 4633,
      "Kur": 4634,
      "Olympia": 4635,
      "deu": 4636,
      "trailer": 4637,
      "Mis": 4638,
      "sedan": 4639,
      "Snow": 4640,
      "Cech": 4641,
      "Fernando": 4642,
      "##zza": 4643,
      "Hull": 4644,
      "##bia": 4645,
      "##py": 4646,
      "Kang": 4647,
      "Rick": 4648,
      "##lor": 4649,
      "Duo": 4650,
      "Manila": 4651,
      "If": 4652,
      "ya": 4653,
      "990": 4654,
      "1020": 4655,
      "Hen": 4656,
      "gel": 4657,
      "sap": 4658,
      "##fu": 4659,
      "##orie": 4660,
      "search": 4661,
      "Album": 4662,
      "Rod": 4663,
      "##onal": 4664,
      "##cal": 4665,
      "home": 4666,
      "##yang": 4667,
      "Catalan": 4668,
      "AH": 4669,
      "Boo": 4670,
      "fl": 4671,
      "##ION": 4672,
      "Ligue": 4673,
      "ik": 4674,
      "##gn": 4675,
      "Prime": 4676,
      "2n": 4677,
      "129": 4678,
      "##ray": 4679,
      "114": 4680,
      "nau": 4681,
      "dich": 4682,
      "Her": 4683,
      "Schalke": 4684,
      "Vert": 4685,
      "##tte": 4686,
      "fashion": 4687,
      "AV": 4688,
      "290": 4689,
      "##lav": 4690,
      "Chang": 4691,
      "lot": 4692,
      "SAO": 4693,
      "Office": 4694,
      "Luiz": 4695,
      "pol": 4696,
      "##CE": 4697,
      "Cannes": 4698,
      "202": 4699,
      "Ay": 4700,
      "What": 4701,
      "##ole": 4702,
      "##NS": 4703,
      "##sto": 4704,
      "##bal": 4705,
      "Angel": 4706,
      "##bà": 4707,
      "concept": 4708,
      "##sim": 4709,
      "##uta": 4710,
      "##hn": 4711,
      "nhện": 4712,
      "Neville": 4713,
      "Champion": 4714,
      "##meye": 4715,
      "vía": 4716,
      "Tel": 4717,
      "nit": 4718,
      "Jun": 4719,
      "PGA": 4720,
      "For": 4721,
      "##chia": 4722,
      "1978": 4723,
      "Jessica": 4724,
      "1976": 4725,
      "hell": 4726,
      "270": 4727,
      "Simon": 4728,
      "Pierre": 4729,
      "Marc": 4730,
      "##bon": 4731,
      "##ím": 4732,
      "GPS": 4733,
      "Ash": 4734,
      "Tata": 4735,
      "Manuel": 4736,
      "##watch": 4737,
      "USS": 4738,
      "Lucas": 4739,
      "Patrick": 4740,
      "siri": 4741,
      "##bá": 4742,
      "Bahrain": 4743,
      "code": 4744,
      "Af": 4745,
      "Brown": 4746,
      "Marco": 4747,
      "##post": 4748,
      "##city": 4749,
      "hii": 4750,
      "Victor": 4751,
      "casino": 4752,
      "##ean": 4753,
      "fair": 4754,
      "##UB": 4755,
      "##jean": 4756,
      "Desire": 4757,
      "##lak": 4758,
      "Eco": 4759,
      "DP": 4760,
      "##sak": 4761,
      "Mag": 4762,
      "Hello": 4763,
      "##SU": 4764,
      "short": 4765,
      "185": 4766,
      "Zhang": 4767,
      "##Ẻ": 4768,
      "Up": 4769,
      "fut": 4770,
      "Von": 4771,
      "Zo": 4772,
      "suo": 4773,
      "##vro": 4774,
      "##ug": 4775,
      "core": 4776,
      "##nal": 4777,
      "Il": 4778,
      "DE": 4779,
      "OP": 4780,
      "Alpha": 4781,
      "Ranier": 4782,
      "Ivan": 4783,
      "168": 4784,
      "Eden": 4785,
      "##lime": 4786,
      "Wat": 4787,
      "GO": 4788,
      "##ci": 4789,
      "Yi": 4790,
      "Jesus": 4791,
      "1973": 4792,
      "Micro": 4793,
      "guitar": 4794,
      "sieu": 4795,
      "Pop": 4796,
      "Pass": 4797,
      "1954": 4798,
      "ỉ": 4799,
      "##PO": 4800,
      "##long": 4801,
      "##rry": 4802,
      "Alba": 4803,
      "##ami": 4804,
      "Card": 4805,
      "##iga": 4806,
      "##sai": 4807,
      "##star": 4808,
      "Bob": 4809,
      "Den": 4810,
      "Bom": 4811,
      "##shino": 4812,
      "Marvel": 4813,
      "Francisco": 4814,
      "Ter": 4815,
      "Kelly": 4816,
      "##amp": 4817,
      "##uza": 4818,
      "Fire": 4819,
      "Osa": 4820,
      "Jackson": 4821,
      "cabin": 4822,
      "##ssa": 4823,
      "Owen": 4824,
      "##EF": 4825,
      "##old": 4826,
      "##ldo": 4827,
      "##uat": 4828,
      "Siri": 4829,
      "##aka": 4830,
      "##sy": 4831,
      "Hee": 4832,
      "##tal": 4833,
      "Leverkusen": 4834,
      "piano": 4835,
      "##cap": 4836,
      "Chicago": 4837,
      "##ona": 4838,
      "Pri": 4839,
      "winner": 4840,
      "ps": 4841,
      "tap": 4842,
      "1972": 4843,
      "Er": 4844,
      "Garros": 4845,
      "152": 4846,
      "DNA": 4847,
      "Vidal": 4848,
      "##bik": 4849,
      "Selena": 4850,
      "##ria": 4851,
      "##nks": 4852,
      "##mt": 4853,
      "USA": 4854,
      "##lt": 4855,
      "liv": 4856,
      "##urai": 4857,
      "##ren": 4858,
      "Vivo": 4859,
      "##bola": 4860,
      "##RC": 4861,
      "bra": 4862,
      "##ini": 4863,
      "##mb": 4864,
      "IQ": 4865,
      "##ld": 4866,
      "##ani": 4867,
      "Moi": 4868,
      "per": 4869,
      "Que": 4870,
      "Ashley": 4871,
      "ĩ": 4872,
      "Gil": 4873,
      "##ano": 4874,
      "as": 4875,
      "##ros": 4876,
      "##lú": 4877,
      "##von": 4878,
      "820": 4879,
      "##hee": 4880,
      "2200": 4881,
      "##tay": 4882,
      "##ES": 4883,
      "##ev": 4884,
      "RS": 4885,
      "##our": 4886,
      "Ea": 4887,
      "##TI": 4888,
      "pai": 4889,
      "auto": 4890,
      "##ab": 4891,
      "net": 4892,
      "##ero": 4893,
      "##ala": 4894,
      "ẻ": 4895,
      "Bart": 4896,
      "ns": 4897,
      "Pitt": 4898,
      "Sal": 4899,
      "Ramsey": 4900,
      "##dama": 4901,
      "Ara": 4902,
      "chocolate": 4903,
      "430": 4904,
      "Bil": 4905,
      "Dani": 4906,
      "tron": 4907,
      "##Ỗ": 4908,
      "##tes": 4909,
      "Get": 4910,
      "Business": 4911,
      "kb": 4912,
      "##vay": 4913,
      "##PA": 4914,
      "Metro": 4915,
      "Alexis": 4916,
      "EX": 4917,
      "sky": 4918,
      "Valverde": 4919,
      "##IL": 4920,
      "##bs": 4921,
      "310": 4922,
      "##umi": 4923,
      "style": 4924,
      "Kara": 4925,
      "224": 4926,
      "##mobil": 4927,
      "pressi": 4928,
      "Philips": 4929,
      "nun": 4930,
      "Boston": 4931,
      "018": 4932,
      "##vin": 4933,
      "rin": 4934,
      "Marca": 4935,
      "Pay": 4936,
      "shopping": 4937,
      "Royal": 4938,
      "Tang": 4939,
      "bill": 4940,
      "##nn": 4941,
      "Brasil": 4942,
      "Has": 4943,
      "215": 4944,
      "##II": 4945,
      "Center": 4946,
      "Saudi": 4947,
      "Abu": 4948,
      "College": 4949,
      "red": 4950,
      "Matt": 4951,
      "##tez": 4952,
      "au": 4953,
      "##rgen": 4954,
      "Santos": 4955,
      "##alo": 4956,
      "Bulgaria": 4957,
      "Mur": 4958,
      "Joshua": 4959,
      "##less": 4960,
      "Rodriguez": 4961,
      "111": 4962,
      "copa": 4963,
      "from": 4964,
      "Lau": 4965,
      "CIA": 4966,
      "##IB": 4967,
      "pit": 4968,
      "##NK": 4969,
      "Bilbao": 4970,
      "photo": 4971,
      "Masa": 4972,
      "WB": 4973,
      "Ur": 4974,
      "245": 4975,
      "motor": 4976,
      "boy": 4977,
      "UA": 4978,
      "##ucci": 4979,
      "Anthony": 4980,
      "##tion": 4981,
      "Type": 4982,
      "Rad": 4983,
      "Vis": 4984,
      "Cape": 4985,
      "Cardiff": 4986,
      "Sergei": 4987,
      "##cy": 4988,
      "##rat": 4989,
      "Motor": 4990,
      "Jason": 4991,
      "275": 4992,
      "Got": 4993,
      "##tina": 4994,
      "Puy": 4995,
      "ON": 4996,
      "##varo": 4997,
      "Guardian": 4998,
      "##ino": 4999,
      "Mei": 5000,
      "Samuel": 5001,
      "118": 5002,
      "##OM": 5003,
      "##ds": 5004,
      "Neue": 5005,
      "Vigo": 5006,
      "##chel": 5007,
      "##CS": 5008,
      "Pal": 5009,
      "##AD": 5010,
      "##roy": 5011,
      "Wu": 5012,
      "IF": 5013,
      "##ney": 5014,
      "ol": 5015,
      "Yoo": 5016,
      "Keane": 5017,
      "Jen": 5018,
      "Lina": 5019,
      "Gun": 5020,
      "##fin": 5021,
      "##ito": 5022,
      "159": 5023,
      "##mn": 5024,
      "##bach": 5025,
      "Miami": 5026,
      "Hat": 5027,
      "Elizabeth": 5028,
      "Plaza": 5029,
      "new": 5030,
      "best": 5031,
      "##gra": 5032,
      "##nti": 5033,
      "diesel": 5034,
      "##ovich": 5035,
      "##xo": 5036,
      "##kit": 5037,
      "S2": 5038,
      "Swift": 5039,
      "##nie": 5040,
      "ci": 5041,
      "Benfica": 5042,
      "Ob": 5043,
      "buon": 5044,
      "##ins": 5045,
      "Will": 5046,
      "High": 5047,
      "ABC": 5048,
      "##obil": 5049,
      "asi": 5050,
      "Sin": 5051,
      "Davis": 5052,
      "min": 5053,
      "##let": 5054,
      "##nk": 5055,
      "Vic": 5056,
      "Liu": 5057,
      "##NY": 5058,
      "Rat": 5059,
      "black": 5060,
      "AG": 5061,
      "##CO": 5062,
      "Viktor": 5063,
      "Novak": 5064,
      "##utu": 5065,
      "Moon": 5066,
      "##itra": 5067,
      "##ken": 5068,
      "##len": 5069,
      "sand": 5070,
      "##dri": 5071,
      "##ier": 5072,
      "Kids": 5073,
      "##kos": 5074,
      "Dia": 5075,
      "1977": 5076,
      "Trans": 5077,
      "##cite": 5078,
      "GL": 5079,
      "Ahmad": 5080,
      "Monte": 5081,
      "radio": 5082,
      "kaki": 5083,
      "Melbourne": 5084,
      "vote": 5085,
      "##ris": 5086,
      "Ray": 5087,
      "##sha": 5088,
      "Team": 5089,
      "##gr": 5090,
      "bog": 5091,
      "121": 5092,
      "LP": 5093,
      "cent": 5094,
      "driver": 5095,
      "##eb": 5096,
      "##mai": 5097,
      "##vid": 5098,
      "##face": 5099,
      "case": 5100,
      "LE": 5101,
      "##ght": 5102,
      "Uni": 5103,
      "Gen": 5104,
      "##ied": 5105,
      "##gel": 5106,
      "Ocean": 5107,
      "Bot": 5108,
      "##point": 5109,
      "Chrome": 5110,
      "Tien": 5111,
      "Japan": 5112,
      "##Ý": 5113,
      "side": 5114,
      "##tti": 5115,
      "Run": 5116,
      "##eik": 5117,
      "195": 5118,
      "MD": 5119,
      "Charlie": 5120,
      "Gas": 5121,
      "Mazda": 5122,
      "End": 5123,
      "##Ẫ": 5124,
      "Gomez": 5125,
      "V8": 5126,
      "Jay": 5127,
      "Project": 5128,
      "##lit": 5129,
      "NASA": 5130,
      "Nissan": 5131,
      "Shu": 5132,
      "##hari": 5133,
      "2030": 5134,
      "toile": 5135,
      "deo": 5136,
      "##yl": 5137,
      "Choi": 5138,
      "Santa": 5139,
      "dance": 5140,
      "##cos": 5141,
      "##rog": 5142,
      "##ezi": 5143,
      "ku": 5144,
      "AU": 5145,
      "Andrew": 5146,
      "##mel": 5147,
      "sus": 5148,
      "##pen": 5149,
      "##essi": 5150,
      "##dea": 5151,
      "WHO": 5152,
      "Gabriel": 5153,
      "Michelle": 5154,
      "Moskva": 5155,
      "###": 5156,
      "Bach": 5157,
      "Pol": 5158,
      "##oto": 5159,
      "##day": 5160,
      "Edition": 5161,
      "Rob": 5162,
      "dj": 5163,
      "Case": 5164,
      "School": 5165,
      "156": 5166,
      "##rã": 5167,
      "Espanyol": 5168,
      "##rk": 5169,
      "##wein": 5170,
      "Ecuador": 5171,
      "Fast": 5172,
      "Pot": 5173,
      "##IG": 5174,
      "525": 5175,
      "##ite": 5176,
      "##nan": 5177,
      "##sch": 5178,
      "##ió": 5179,
      "dó": 5180,
      "Mart": 5181,
      "##gar": 5182,
      "NC": 5183,
      "##bat": 5184,
      "Glass": 5185,
      "##stel": 5186,
      "Flash": 5187,
      "Lie": 5188,
      "460": 5189,
      "126": 5190,
      "Ren": 5191,
      "Journal": 5192,
      "Morgan": 5193,
      "##zy": 5194,
      "##FA": 5195,
      "##mer": 5196,
      "Entertainment": 5197,
      "menu": 5198,
      "1968": 5199,
      "Harvard": 5200,
      "Lim": 5201,
      "Find": 5202,
      "Yoon": 5203,
      "UNESCO": 5204,
      "Um": 5205,
      "Vers": 5206,
      "##hip": 5207,
      "ab": 5208,
      "##ada": 5209,
      "##iz": 5210,
      "Think": 5211,
      "Let": 5212,
      "##ira": 5213,
      "##ack": 5214,
      "Gemini": 5215,
      "Pacific": 5216,
      "##met": 5217,
      "bag": 5218,
      "Pia": 5219,
      "Key": 5220,
      "##uz": 5221,
      "Demi": 5222,
      "##emlin": 5223,
      "Dio": 5224,
      "B1": 5225,
      "##ols": 5226,
      "des": 5227,
      "235": 5228,
      "Stephen": 5229,
      "##latan": 5230,
      "##quo": 5231,
      "##char": 5232,
      "Bolt": 5233,
      "ny": 5234,
      "##jan": 5235,
      "##vra": 5236,
      "nickname": 5237,
      "Lux": 5238,
      "TCN": 5239,
      "Laden": 5240,
      "##ngs": 5241,
      "Secret": 5242,
      "Lewis": 5243,
      "núm": 5244,
      "Miranda": 5245,
      "pa": 5246,
      "pp": 5247,
      "122": 5248,
      "2300": 5249,
      "##sson": 5250,
      "##rgi": 5251,
      "##rov": 5252,
      "Avengers": 5253,
      "Burn": 5254,
      "##sea": 5255,
      "##hic": 5256,
      "##nin": 5257,
      "390": 5258,
      "That": 5259,
      "540": 5260,
      "##FC": 5261,
      "204": 5262,
      "##zou": 5263,
      "##hos": 5264,
      "5500": 5265,
      "Muller": 5266,
      "2400": 5267,
      "299": 5268,
      "Pepsi": 5269,
      "530": 5270,
      "##qa": 5271,
      "Led": 5272,
      "##bis": 5273,
      "##gl": 5274,
      "Parma": 5275,
      "T2": 5276,
      "Alt": 5277,
      "Miley": 5278,
      "nom": 5279,
      "##back": 5280,
      "Vegas": 5281,
      "##uye": 5282,
      "window": 5283,
      "Ava": 5284,
      "Ang": 5285,
      "##zeko": 5286,
      "Capital": 5287,
      "##ib": 5288,
      "NB": 5289,
      "Hill": 5290,
      "##Ễ": 5291,
      "Mori": 5292,
      "Dual": 5293,
      "##pol": 5294,
      "1966": 5295,
      "##him": 5296,
      "Nova": 5297,
      "149": 5298,
      "##dz": 5299,
      "single": 5300,
      "1971": 5301,
      "##vere": 5302,
      "sun": 5303,
      "Willi": 5304,
      "153": 5305,
      "##qui": 5306,
      "##light": 5307,
      "##enz": 5308,
      "265": 5309,
      "Ave": 5310,
      "Coca": 5311,
      "##omo": 5312,
      "##uth": 5313,
      "##hit": 5314,
      "##INE": 5315,
      "DM": 5316,
      "IBM": 5317,
      "Small": 5318,
      "Venus": 5319,
      "##ipa": 5320,
      "222": 5321,
      "171": 5322,
      "Sul": 5323,
      "Dam": 5324,
      "God": 5325,
      "##mann": 5326,
      "##ita": 5327,
      "VR": 5328,
      "Cameron": 5329,
      "Nobel": 5330,
      "##lbe": 5331,
      "##act": 5332,
      "##rena": 5333,
      "##ling": 5334,
      "##bay": 5335,
      "Mot": 5336,
      "Vincent": 5337,
      "Io": 5338,
      "SMS": 5339,
      "Mid": 5340,
      "##kong": 5341,
      "##ali": 5342,
      "##yf": 5343,
      "Gang": 5344,
      "bien": 5345,
      "Sm": 5346,
      "##mos": 5347,
      "Classic": 5348,
      "zo": 5349,
      "##xan": 5350,
      "Kei": 5351,
      "McDonald": 5352,
      "##gay": 5353,
      "JP": 5354,
      "Express": 5355,
      "ag": 5356,
      "dana": 5357,
      "Jim": 5358,
      "Cambridge": 5359,
      "not": 5360,
      "203": 5361,
      "Eo": 5362,
      "From": 5363,
      "hoe": 5364,
      "coa": 5365,
      "##mah": 5366,
      "Són": 5367,
      "##sia": 5368,
      "##dha": 5369,
      "##RI": 5370,
      "rap": 5371,
      "AA": 5372,
      "Pic": 5373,
      "ẹ": 5374,
      "Osaka": 5375,
      "Shah": 5376,
      "1920": 5377,
      "Danny": 5378,
      "##tas": 5379,
      "##hau": 5380,
      "KA": 5381,
      "##ben": 5382,
      "Sina": 5383,
      "nag": 5384,
      "Mari": 5385,
      "##ima": 5386,
      "490": 5387,
      "Houston": 5388,
      "tôt": 5389,
      "Kenya": 5390,
      "AB": 5391,
      "Ling": 5392,
      "##emon": 5393,
      "Nepal": 5394,
      "Mali": 5395,
      "##ghi": 5396,
      "room": 5397,
      "Alle": 5398,
      "##mir": 5399,
      "##ngt": 5400,
      "ợ": 5401,
      "make": 5402,
      "##hem": 5403,
      "##rra": 5404,
      "##thon": 5405,
      "del": 5406,
      "##gate": 5407,
      "His": 5408,
      "##sena": 5409,
      "North": 5410,
      "##steiger": 5411,
      "bg": 5412,
      "##sam": 5413,
      "##gth": 5414,
      "studio": 5415,
      "##ning": 5416,
      "##gla": 5417,
      "1967": 5418,
      "##meti": 5419,
      "res": 5420,
      "##ub": 5421,
      "EL": 5422,
      "Galatasaray": 5423,
      "1958": 5424,
      "gr": 5425,
      "Mus": 5426,
      "Riva": 5427,
      "Novo": 5428,
      "1962": 5429,
      "1969": 5430,
      "Paulo": 5431,
      "MM": 5432,
      "410": 5433,
      "Joseph": 5434,
      "Fiorentina": 5435,
      "Inn": 5436,
      "UC": 5437,
      "##rse": 5438,
      "##toi": 5439,
      "205": 5440,
      "##dong": 5441,
      "##zak": 5442,
      "Dar": 5443,
      "Luke": 5444,
      "Southern": 5445,
      "CAN": 5446,
      "##ssi": 5447,
      "Pod": 5448,
      "208": 5449,
      "Standard": 5450,
      "Emery": 5451,
      "Hawaii": 5452,
      "Iron": 5453,
      "cd": 5454,
      "##her": 5455,
      "Edward": 5456,
      "##bán": 5457,
      "Sand": 5458,
      "830": 5459,
      "127": 5460,
      "National": 5461,
      "##rm": 5462,
      "Elo": 5463,
      "##stro": 5464,
      "Wave": 5465,
      "Oliver": 5466,
      "ỷ": 5467,
      "##chenko": 5468,
      "Dat": 5469,
      "sin": 5470,
      "Stan": 5471,
      "Ano": 5472,
      "636": 5473,
      "Aaron": 5474,
      "McLaren": 5475,
      "nek": 5476,
      "##nl": 5477,
      "##ium": 5478,
      "Net": 5479,
      "Howard": 5480,
      "U18": 5481,
      "##ace": 5482,
      "##quez": 5483,
      "##ost": 5484,
      "A2": 5485,
      "##ôt": 5486,
      "##mes": 5487,
      "##ow": 5488,
      "Ẩ": 5489,
      "Ari": 5490,
      "##NI": 5491,
      "Rossi": 5492,
      "##rc": 5493,
      "Network": 5494,
      "resort": 5495,
      "kW": 5496,
      "Sarah": 5497,
      "rua": 5498,
      "Romania": 5499,
      "##pas": 5500,
      "##ville": 5501,
      "Qui": 5502,
      "Rev": 5503,
      "##trie": 5504,
      "169": 5505,
      "##rn": 5506,
      "##tic": 5507,
      "Audio": 5508,
      "132": 5509,
      "##DO": 5510,
      "KB": 5511,
      "Wood": 5512,
      "Arab": 5513,
      "##hl": 5514,
      "##gre": 5515,
      "1965": 5516,
      "Abdul": 5517,
      "M4": 5518,
      "124": 5519,
      "##bn": 5520,
      "fed": 5521,
      "Seed": 5522,
      "2100": 5523,
      "Made": 5524,
      "##girl": 5525,
      "McGregor": 5526,
      "##ood": 5527,
      "##PS": 5528,
      "Mil": 5529,
      "##pur": 5530,
      "Visa": 5531,
      "Korea": 5532,
      "Bad": 5533,
      "Back": 5534,
      "Cal": 5535,
      "Walker": 5536,
      "##ser": 5537,
      "##nic": 5538,
      "Pak": 5539,
      "2800": 5540,
      "##ern": 5541,
      "##gna": 5542,
      "##GL": 5543,
      "super": 5544,
      "UP": 5545,
      "##zor": 5546,
      "PD": 5547,
      "major": 5548,
      "Telecom": 5549,
      "##ique": 5550,
      "249": 5551,
      "##pet": 5552,
      "##sut": 5553,
      "acid": 5554,
      "##cla": 5555,
      "440": 5556,
      "##ash": 5557,
      "Kazakhstan": 5558,
      "##verte": 5559,
      "##lă": 5560,
      "un": 5561,
      "141": 5562,
      "##ell": 5563,
      "BE": 5564,
      "Neo": 5565,
      "Schumacher": 5566,
      "remote": 5567,
      "374": 5568,
      "Sara": 5569,
      "Us": 5570,
      "1964": 5571,
      "Titan": 5572,
      "Bruno": 5573,
      "Eriksson": 5574,
      "301": 5575,
      "Ass": 5576,
      "Golden": 5577,
      "Lisbon": 5578,
      "##gawa": 5579,
      "1945": 5580,
      "Wigan": 5581,
      "Hall": 5582,
      "00": 5583,
      "Mont": 5584,
      "Erik": 5585,
      "view": 5586,
      "LAN": 5587,
      "##rae": 5588,
      "##chera": 5589,
      "##hz": 5590,
      "##vil": 5591,
      "Anderson": 5592,
      "sport": 5593,
      "Mode": 5594,
      "Yong": 5595,
      "cos": 5596,
      "Non": 5597,
      "133": 5598,
      "##tz": 5599,
      "##tta": 5600,
      "server": 5601,
      "##board": 5602,
      "Aga": 5603,
      "Inside": 5604,
      "##nger": 5605,
      "##nang": 5606,
      "166": 5607,
      "Football": 5608,
      "158": 5609,
      "Bos": 5610,
      "Levante": 5611,
      "big": 5612,
      "nak": 5613,
      "920": 5614,
      "##ear": 5615,
      "cover": 5616,
      "testo": 5617,
      "ultra": 5618,
      "Morning": 5619,
      "##dro": 5620,
      "Xbox": 5621,
      "Hanoi": 5622,
      "##olo": 5623,
      "Cruz": 5624,
      "Line": 5625,
      "Mohamed": 5626,
      "Nathan": 5627,
      "##win": 5628,
      "##ppi": 5629,
      "##bh": 5630,
      "NK": 5631,
      "##sit": 5632,
      "##oda": 5633,
      "2700": 5634,
      "Gan": 5635,
      "##bos": 5636,
      "##ella": 5637,
      "##cks": 5638,
      "620": 5639,
      "##efa": 5640,
      "##tico": 5641,
      "##aro": 5642,
      "won": 5643,
      "198": 5644,
      "C3": 5645,
      "By": 5646,
      "moc": 5647,
      "##lic": 5648,
      "Bentley": 5649,
      "##chan": 5650,
      "##ela": 5651,
      "##raz": 5652,
      "Dor": 5653,
      "Dark": 5654,
      "##ksi": 5655,
      "seo": 5656,
      "Bee": 5657,
      "SF": 5658,
      "Resort": 5659,
      "af": 5660,
      "Jamie": 5661,
      "SAR": 5662,
      "AMD": 5663,
      "##lca": 5664,
      "Wan": 5665,
      "##gy": 5666,
      "##ME": 5667,
      "##UT": 5668,
      "##az": 5669,
      "Gall": 5670,
      "##sci": 5671,
      "##gno": 5672,
      "##hre": 5673,
      "##orf": 5674,
      "Airbus": 5675,
      "2600": 5676,
      "##ffe": 5677,
      "SBS": 5678,
      "##sport": 5679,
      "Messenger": 5680,
      "en": 5681,
      "Noi": 5682,
      "##loa": 5683,
      "##bas": 5684,
      "##ned": 5685,
      "##hab": 5686,
      "nap": 5687,
      "##kan": 5688,
      "AE": 5689,
      "3200": 5690,
      "##rer": 5691,
      "##zil": 5692,
      "ken": 5693,
      "ún": 5694,
      "Bull": 5695,
      "##mh": 5696,
      "Cop": 5697,
      "Hey": 5698,
      "mil": 5699,
      "##Ỹ": 5700,
      "##tor": 5701,
      "212": 5702,
      "LM": 5703,
      "Asa": 5704,
      "154": 5705,
      "Les": 5706,
      "Brian": 5707,
      "Rec": 5708,
      "Tower": 5709,
      "MP3": 5710,
      "##oid": 5711,
      "##iya": 5712,
      "560": 5713,
      "##lia": 5714,
      "Emma": 5715,
      "##ag": 5716,
      "Hum": 5717,
      "R2": 5718,
      "sing": 5719,
      "580": 5720,
      "TX": 5721,
      "##ply": 5722,
      "1963": 5723,
      "##jib": 5724,
      "Virginia": 5725,
      "Leonardo": 5726,
      "Maya": 5727,
      "D1": 5728,
      "Hugo": 5729,
      "##kr": 5730,
      "Rum": 5731,
      "TVB": 5732,
      "147": 5733,
      "But": 5734,
      "##side": 5735,
      "##rum": 5736,
      "304": 5737,
      "Marseille": 5738,
      "##fre": 5739,
      "high": 5740,
      "Res": 5741,
      "##mil": 5742,
      "ROM": 5743,
      "eki": 5744,
      "ọ": 5745,
      "RF": 5746,
      "Happy": 5747,
      "1930": 5748,
      "801": 5749,
      "Tak": 5750,
      "Abbott": 5751,
      "Allianz": 5752,
      "crop": 5753,
      "share": 5754,
      "Hun": 5755,
      "Lawrence": 5756,
      "É": 5757,
      "##timus": 5758,
      "##boy": 5759,
      "Seu": 5760,
      "139": 5761,
      "Digital": 5762,
      "##cott": 5763,
      "144": 5764,
      "A6": 5765,
      "227": 5766,
      "BR": 5767,
      "##bio": 5768,
      "Cameroon": 5769,
      "Wilson": 5770,
      "##bla": 5771,
      "T1": 5772,
      "##rri": 5773,
      "Eu": 5774,
      "Ivanov": 5775,
      "##tle": 5776,
      "##hill": 5777,
      "with": 5778,
      "##rb": 5779,
      "Belarus": 5780,
      "##EE": 5781,
      "660": 5782,
      "##zer": 5783,
      "##IR": 5784,
      "Bieber": 5785,
      "Ata": 5786,
      "Anne": 5787,
      "compact": 5788,
      "Roi": 5789,
      "Uz": 5790,
      "##uma": 5791,
      "Ker": 5792,
      "Premium": 5793,
      "##IF": 5794,
      "B2": 5795,
      "photos": 5796,
      "Vol": 5797,
      "rien": 5798,
      "Senegal": 5799,
      "##NV": 5800,
      "hyd": 5801,
      "##dini": 5802,
      "Phantom": 5803,
      "##ob": 5804,
      "Out": 5805,
      "##dog": 5806,
      "Marketing": 5807,
      "##ef": 5808,
      "tik": 5809,
      "##ouse": 5810,
      "ramo": 5811,
      "682": 5812,
      "138": 5813,
      "##era": 5814,
      "##chy": 5815,
      "##here": 5816,
      "Allen": 5817,
      "##GC": 5818,
      "##zh": 5819,
      "Over": 5820,
      "##cer": 5821,
      "##sti": 5822,
      "Box": 5823,
      "ABS": 5824,
      "sna": 5825,
      "LC": 5826,
      "Coll": 5827,
      "##wood": 5828,
      "Bol": 5829,
      "##ark": 5830,
      "Dol": 5831,
      "Belle": 5832,
      "Paraguay": 5833,
      "136": 5834,
      "Laurent": 5835,
      "Philipp": 5836,
      "Hit": 5837,
      "162": 5838,
      "189": 5839,
      "NFC": 5840,
      "##ik": 5841,
      "Blu": 5842,
      "##RT": 5843,
      "##uu": 5844,
      "##qi": 5845,
      "##PC": 5846,
      "Ei": 5847,
      "Leeds": 5848,
      "Adi": 5849,
      "Jae": 5850,
      "der": 5851,
      "Roman": 5852,
      "##sey": 5853,
      "mg": 5854,
      "##rmin": 5855,
      "##ide": 5856,
      "download": 5857,
      "Chun": 5858,
      "##aze": 5859,
      "Chanel": 5860,
      "Central": 5861,
      "179": 5862,
      "##DS": 5863,
      "beta": 5864,
      "Bel": 5865,
      "Ama": 5866,
      "Laser": 5867,
      "##rious": 5868,
      "##vs": 5869,
      "Art": 5870,
      "##LS": 5871,
      "Ike": 5872,
      "Nicolas": 5873,
      "Doc": 5874,
      "Link": 5875,
      "Slim": 5876,
      "##nei": 5877,
      "Samurai": 5878,
      "gold": 5879,
      "chien": 5880,
      "##log": 5881,
      "Karl": 5882,
      "sy": 5883,
      "##ori": 5884,
      "##fish": 5885,
      "216": 5886,
      "##isi": 5887,
      "##key": 5888,
      "happy": 5889,
      "Tor": 5890,
      "Rain": 5891,
      "163": 5892,
      "##iba": 5893,
      "##zag": 5894,
      "##vre": 5895,
      "Cruise": 5896,
      "##kes": 5897,
      "RT": 5898,
      "##kien": 5899,
      "##ting": 5900,
      "aj": 5901,
      "Jonathan": 5902,
      "192": 5903,
      "##tch": 5904,
      "##tna": 5905,
      "Ê": 5906,
      "##eni": 5907,
      "Nat": 5908,
      "Fabio": 5909,
      "##haa": 5910,
      "chun": 5911,
      "Mall": 5912,
      "##hian": 5913,
      "Columbia": 5914,
      "shops": 5915,
      "##ice": 5916,
      "##row": 5917,
      "##ale": 5918,
      "880": 5919,
      "##mark": 5920,
      "Night": 5921,
      "Trail": 5922,
      "shi": 5923,
      "##pod": 5924,
      "Por": 5925,
      "##wang": 5926,
      "925": 5927,
      "Campbell": 5928,
      "##cta": 5929,
      "Beats": 5930,
      "Johnny": 5931,
      "325": 5932,
      "Stone": 5933,
      "810": 5934,
      "NBA": 5935,
      "##vaja": 5936,
      "##abi": 5937,
      "IA": 5938,
      "1956": 5939,
      "##ica": 5940,
      "Tehran": 5941,
      "Vicente": 5942,
      "##gian": 5943,
      "##ure": 5944,
      "C4": 5945,
      "IB": 5946,
      "seri": 5947,
      "##max": 5948,
      "##nte": 5949,
      "##rya": 5950,
      "##link": 5951,
      "##GS": 5952,
      "block": 5953,
      "##ies": 5954,
      "##suna": 5955,
      "##chta": 5956,
      "HB": 5957,
      "Chevrolet": 5958,
      "Sala": 5959,
      "MR": 5960,
      "bd": 5961,
      "##hita": 5962,
      "##bón": 5963,
      "##nia": 5964,
      "Fair": 5965,
      "207": 5966,
      "##bel": 5967,
      "870": 5968,
      "Amsterdam": 5969,
      "##news": 5970,
      "##ktop": 5971,
      "399": 5972,
      "##ant": 5973,
      "##els": 5974,
      "Table": 5975,
      "Marie": 5976,
      "##ndo": 5977,
      "##hur": 5978,
      "##dd": 5979,
      "fu": 5980,
      "##hia": 5981,
      "##cra": 5982,
      "styl": 5983,
      "sk": 5984,
      "café": 5985,
      "touch": 5986,
      "Sporting": 5987,
      "##uro": 5988,
      "##noi": 5989,
      "Hale": 5990,
      "##Ằ": 5991,
      "Nintendo": 5992,
      "Health": 5993,
      "Merkel": 5994,
      "##uang": 5995,
      "serie": 5996,
      "##ensi": 5997,
      "Michel": 5998,
      "audio": 5999,
      "mas": 6000,
      "##tech": 6001,
      "Arte": 6002,
      "Bali": 6003,
      "Timor": 6004,
      "ll": 6005,
      "all": 6006,
      "355": 6007,
      "DL": 6008,
      "##VE": 6009,
      "Warren": 6010,
      "##gma": 6011,
      "##ate": 6012,
      "Chong": 6013,
      "214": 6014,
      "mesi": 6015,
      "##EP": 6016,
      "sub": 6017,
      "ins": 6018,
      "Gerard": 6019,
      "DDR": 6020,
      "##RS": 6021,
      "Rover": 6022,
      "iTunes": 6023,
      "Jorge": 6024,
      "Prix": 6025,
      "call": 6026,
      "##VA": 6027,
      "Website": 6028,
      "##elo": 6029,
      "Lebanon": 6030,
      "Miller": 6031,
      "1959": 6032,
      "##Ỡ": 6033,
      "##sco": 6034,
      "el": 6035,
      "ón": 6036,
      "##ardo": 6037,
      "lit": 6038,
      "##burg": 6039,
      "Ghana": 6040,
      "Dragon": 6041,
      "470": 6042,
      "Turin": 6043,
      "Market": 6044,
      "Eli": 6045,
      "Rus": 6046,
      "Vas": 6047,
      "Ericsson": 6048,
      "Birmingham": 6049,
      "164": 6050,
      "cut": 6051,
      "##lui": 6052,
      "KM": 6053,
      "##led": 6054,
      "boot": 6055,
      "##ôg": 6056,
      "##È": 6057,
      "Brendan": 6058,
      "back": 6059,
      "Manu": 6060,
      "Yon": 6061,
      "argentina": 6062,
      "miss": 6063,
      "Bobby": 6064,
      "##ame": 6065,
      "Eun": 6066,
      "Say": 6067,
      "209": 6068,
      "625": 6069,
      "##lock": 6070,
      "375": 6071,
      "##pra": 6072,
      "1961": 6073,
      "Maritime": 6074,
      "tele": 6075,
      "map": 6076,
      "##ever": 6077,
      "##uri": 6078,
      "Flor": 6079,
      "Slovakia": 6080,
      "##mat": 6081,
      "##ven": 6082,
      "Word": 6083,
      "##IO": 6084,
      "Rin": 6085,
      "dream": 6086,
      "kat": 6087,
      "##vert": 6088,
      "Hero": 6089,
      "##SI": 6090,
      "Rica": 6091,
      "Om": 6092,
      "219": 6093,
      "canon": 6094,
      "331": 6095,
      "403": 6096,
      "790": 6097,
      "Javier": 6098,
      "Aqua": 6099,
      "AMC": 6100,
      "##ove": 6101,
      "##apo": 6102,
      "Blade": 6103,
      "##gion": 6104,
      "pu": 6105,
      "234": 6106,
      "##ther": 6107,
      "##cze": 6108,
      "Oman": 6109,
      "past": 6110,
      "Calder": 6111,
      "##tui": 6112,
      "##loop": 6113,
      "Ant": 6114,
      "143": 6115,
      "Racing": 6116,
      "GSM": 6117,
      "Volkswagen": 6118,
      "Bell": 6119,
      "Grammy": 6120,
      "##sny": 6121,
      "marathon": 6122,
      "Captain": 6123,
      "Low": 6124,
      "Jakarta": 6125,
      "Samson": 6126,
      "TOP": 6127,
      "book": 6128,
      "##ison": 6129,
      "##GM": 6130,
      "Omar": 6131,
      "Der": 6132,
      "##ppo": 6133,
      "##vich": 6134,
      "##oop": 6135,
      "157": 6136,
      "##sso": 6137,
      "Active": 6138,
      "General": 6139,
      "dor": 6140,
      "First": 6141,
      "167": 6142,
      "Vale": 6143,
      "Light": 6144,
      "log": 6145,
      "Basel": 6146,
      "##tek": 6147,
      "Hillary": 6148,
      "##hes": 6149,
      "est": 6150,
      "Spider": 6151,
      "EA": 6152,
      "Luc": 6153,
      "Med": 6154,
      "Blackburn": 6155,
      "Mancini": 6156,
      "http": 6157,
      "Mick": 6158,
      "Jeff": 6159,
      "kl": 6160,
      "##cher": 6161,
      "##ods": 6162,
      "##mouth": 6163,
      "##quin": 6164,
      "Matthew": 6165,
      "##rdy": 6166,
      "570": 6167,
      "##cola": 6168,
      "##rg": 6169,
      "div": 6170,
      "Fernand": 6171,
      "##zal": 6172,
      "305": 6173,
      "176": 6174,
      "Mitsubishi": 6175,
      "sala": 6176,
      "Brooklyn": 6177,
      "Herrera": 6178,
      "##phie": 6179,
      "##rl": 6180,
      "##hio": 6181,
      "Family": 6182,
      "kali": 6183,
      "Bourne": 6184,
      "##tín": 6185,
      "Book": 6186,
      "Bruce": 6187,
      "##elli": 6188,
      "Lanka": 6189,
      "GPU": 6190,
      "Int": 6191,
      "GC": 6192,
      "##cco": 6193,
      "ale": 6194,
      "cc": 6195,
      "Eva": 6196,
      "PSV": 6197,
      "Gaga": 6198,
      "View": 6199,
      "##eno": 6200,
      "Diamond": 6201,
      "##oma": 6202,
      "##yet": 6203,
      "Sound": 6204,
      "##evo": 6205,
      "##erg": 6206,
      "Dow": 6207,
      "Lig": 6208,
      "data": 6209,
      "Kuwait": 6210,
      "McCain": 6211,
      "##oba": 6212,
      "##vac": 6213,
      "##eh": 6214,
      "Make": 6215,
      "##evi": 6216,
      "911": 6217,
      "##film": 6218,
      "Zum": 6219,
      "##sang": 6220,
      "Pac": 6221,
      "boxing": 6222,
      "##laze": 6223,
      "206": 6224,
      "Queen": 6225,
      "Lisa": 6226,
      "par": 6227,
      "##eg": 6228,
      "##kar": 6229,
      "ge": 6230,
      "ion": 6231,
      "##ces": 6232,
      "##sta": 6233,
      "315": 6234,
      "Dal": 6235,
      "dot": 6236,
      "Bolivia": 6237,
      "Kerr": 6238,
      "Vier": 6239,
      "##non": 6240,
      "##nis": 6241,
      "Moore": 6242,
      "hau": 6243,
      "174": 6244,
      "ă": 6245,
      "##ora": 6246,
      "LL": 6247,
      "True": 6248,
      "Mir": 6249,
      "WTA": 6250,
      "root": 6251,
      "Jane": 6252,
      "Elite": 6253,
      "##nymous": 6254,
      "Frankfurt": 6255,
      "##lot": 6256,
      "##MS": 6257,
      "film": 6258,
      "248": 6259,
      "2D": 6260,
      "##fen": 6261,
      "Ani": 6262,
      "Fred": 6263,
      "131": 6264,
      "Sus": 6265,
      "##dge": 6266,
      "##LL": 6267,
      "HM": 6268,
      "dio": 6269,
      "##rop": 6270,
      "##rle": 6271,
      "Penal": 6272,
      "##bang": 6273,
      "##tien": 6274,
      "Bug": 6275,
      "Johan": 6276,
      "tram": 6277,
      "Mach": 6278,
      "A4": 6279,
      "##del": 6280,
      "JB": 6281,
      "780": 6282,
      "FM": 6283,
      "Girl": 6284,
      "##view": 6285,
      "CF": 6286,
      "Ferrer": 6287,
      "Harper": 6288,
      "##lar": 6289,
      "Ian": 6290,
      "Phillip": 6291,
      "Maps": 6292,
      "Albert": 6293,
      "Rap": 6294,
      "Mina": 6295,
      "##worth": 6296,
      "##tone": 6297,
      "##ama": 6298,
      "##dai": 6299,
      "Nest": 6300,
      "Yoga": 6301,
      "Cooper": 6302,
      "Window": 6303,
      "rapper": 6304,
      "Billboard": 6305,
      "##mic": 6306,
      "thin": 6307,
      "##nen": 6308,
      "295": 6309,
      "poster": 6310,
      "Fat": 6311,
      "Marathon": 6312,
      "Adrian": 6313,
      "Cass": 6314,
      "Sue": 6315,
      "et": 6316,
      "##cin": 6317,
      "##aco": 6318,
      "People": 6319,
      "##bie": 6320,
      "Studio": 6321,
      "##LD": 6322,
      "GR": 6323,
      "mach": 6324,
      "##DB": 6325,
      "##hog": 6326,
      "Cher": 6327,
      "178": 6328,
      "DR": 6329,
      "Rang": 6330,
      "##đen": 6331,
      "##nth": 6332,
      "##yne": 6333,
      "Valladolid": 6334,
      "Sr": 6335,
      "##nst": 6336,
      "Av": 6337,
      "Lotte": 6338,
      "1940": 6339,
      "##cent": 6340,
      "Call": 6341,
      "Hara": 6342,
      "Bravo": 6343,
      "Today": 6344,
      "Mor": 6345,
      "255": 6346,
      "273": 6347,
      "##sun": 6348,
      "Mia": 6349,
      "##adi": 6350,
      "Claudio": 6351,
      "Bio": 6352,
      "Julian": 6353,
      "Piero": 6354,
      "East": 6355,
      "Met": 6356,
      "var": 6357,
      "Gori": 6358,
      "Phoenix": 6359,
      "Goal": 6360,
      "Dum": 6361,
      "PTT": 6362,
      "Fortune": 6363,
      "Perth": 6364,
      "##fel": 6365,
      "Mit": 6366,
      "Orlando": 6367,
      "Vieira": 6368,
      "##cle": 6369,
      "Kai": 6370,
      "casting": 6371,
      "River": 6372,
      "610": 6373,
      "IL": 6374,
      "##nc": 6375,
      "Ross": 6376,
      "Reg": 6377,
      "##ata": 6378,
      "Ever": 6379,
      "Design": 6380,
      "Boy": 6381,
      "Come": 6382,
      "Hawk": 6383,
      "CG": 6384,
      "213": 6385,
      "Mix": 6386,
      "Silver": 6387,
      "CAS": 6388,
      "PCI": 6389,
      "MBA": 6390,
      "Town": 6391,
      "##amo": 6392,
      "hun": 6393,
      "Felix": 6394,
      "ARM": 6395,
      "##pus": 6396,
      "Blake": 6397,
      "Delhi": 6398,
      "##bic": 6399,
      "nat": 6400,
      "##all": 6401,
      "Panama": 6402,
      "Berg": 6403,
      "Pauli": 6404,
      "670": 6405,
      "252": 6406,
      "##dic": 6407,
      "vir": 6408,
      "##rag": 6409,
      "##wich": 6410,
      "Had": 6411,
      "club": 6412,
      "line": 6413,
      "pr": 6414,
      "##ens": 6415,
      "Photos": 6416,
      "Karim": 6417,
      "tag": 6418,
      "##ast": 6419,
      "cell": 6420,
      "##jin": 6421,
      "Bean": 6422,
      "##oco": 6423,
      "Nor": 6424,
      "Universe": 6425,
      "960": 6426,
      "Ir": 6427,
      "km2": 6428,
      "Cara": 6429,
      "##ston": 6430,
      "Sunshine": 6431,
      "##zone": 6432,
      "Janet": 6433,
      "##oni": 6434,
      "142": 6435,
      "Rep": 6436,
      "mao": 6437,
      "264": 6438,
      "coupe": 6439,
      "##pter": 6440,
      "##SL": 6441,
      "499": 6442,
      "load": 6443,
      "Mira": 6444,
      "##ire": 6445,
      "Catherine": 6446,
      "Dutch": 6447,
      "137": 6448,
      "246": 6449,
      "##gg": 6450,
      "##ws": 6451,
      "Nike": 6452,
      "1320": 6453,
      "223": 6454,
      "Georgia": 6455,
      "Benjamin": 6456,
      "Renault": 6457,
      "Amy": 6458,
      "Mess": 6459,
      "##cara": 6460,
      "##ere": 6461,
      "Arnold": 6462,
      "Great": 6463,
      "##ose": 6464,
      "##KA": 6465,
      "Heart": 6466,
      "sound": 6467,
      "hip": 6468,
      "816": 6469,
      "##nna": 6470,
      "ES": 6471,
      "flagship": 6472,
      "148": 6473,
      "SR": 6474,
      "##xon": 6475,
      "##rus": 6476,
      "CBC": 6477,
      "##mina": 6478,
      "##ví": 6479,
      "354": 6480,
      "##ink": 6481,
      "Mats": 6482,
      "Celtic": 6483,
      "\\": 6484,
      "zu": 6485,
      "##lec": 6486,
      "Wells": 6487,
      "##lai": 6488,
      "228": 6489,
      "Bangladesh": 6490,
      "##hd": 6491,
      "##eis": 6492,
      "Port": 6493,
      "##iro": 6494,
      "Island": 6495,
      "##nda": 6496,
      "510": 6497,
      "module": 6498,
      "Comment": 6499,
      "##rive": 6500,
      "prime": 6501,
      "cui": 6502,
      "##jt": 6503,
      "Ned": 6504,
      "Style": 6505,
      "##lian": 6506,
      "Udine": 6507,
      "Evans": 6508,
      "##yg": 6509,
      "##dia": 6510,
      "##gor": 6511,
      "##bri": 6512,
      "##agh": 6513,
      "242": 6514,
      "OM": 6515,
      "Quick": 6516,
      "161": 6517,
      "2021": 6518,
      "221": 6519,
      "Col": 6520,
      "##kor": 6521,
      "Hus": 6522,
      "1957": 6523,
      "##odo": 6524,
      "1955": 6525,
      "Thor": 6526,
      "UV": 6527,
      "Tara": 6528,
      "##sse": 6529,
      "Gomes": 6530,
      "134": 6531,
      "##iti": 6532,
      "##ches": 6533,
      "784": 6534,
      "Reus": 6535,
      "Henderson": 6536,
      "hel": 6537,
      "kon": 6538,
      "##iv": 6539,
      "hand": 6540,
      "##kis": 6541,
      "##chon": 6542,
      "##bby": 6543,
      "226": 6544,
      "##chin": 6545,
      "##lly": 6546,
      "##mun": 6547,
      "333": 6548,
      "Mao": 6549,
      "Tem": 6550,
      "##iq": 6551,
      "##ope": 6552,
      "Arthur": 6553,
      "##kwondo": 6554,
      "Diana": 6555,
      "##fer": 6556,
      "Carolina": 6557,
      "##jen": 6558,
      "##iver": 6559,
      "Dolby": 6560,
      "Color": 6561,
      "Hand": 6562,
      "Philippe": 6563,
      "UFC": 6564,
      "Ming": 6565,
      "RB": 6566,
      "huu": 6567,
      "cara": 6568,
      "##eri": 6569,
      "Berlusconi": 6570,
      "##hr": 6571,
      "##blo": 6572,
      "vat": 6573,
      "146": 6574,
      "Rom": 6575,
      "Kat": 6576,
      "Jimmy": 6577,
      "conte": 6578,
      "Shanghai": 6579,
      "1953": 6580,
      "##UC": 6581,
      "229": 6582,
      "##aren": 6583,
      "##sper": 6584,
      "##aki": 6585,
      "##ista": 6586,
      "Dustin": 6587,
      "Robot": 6588,
      "Latvia": 6589,
      "Hollande": 6590,
      "Sorry": 6591,
      "##tot": 6592,
      "Junior": 6593,
      "Road": 6594,
      "Gal": 6595,
      "Test": 6596,
      "Lives": 6597,
      "##kori": 6598,
      "Catalonia": 6599,
      "doan": 6600,
      "Virus": 6601,
      "tea": 6602,
      "os": 6603,
      "Qi": 6604,
      "Granada": 6605,
      "down": 6606,
      "Not": 6607,
      "Ia": 6608,
      "Oxford": 6609,
      "Duc": 6610,
      "but": 6611,
      "MAN": 6612,
      "Toronto": 6613,
      "183": 6614,
      "Hal": 6615,
      "##egen": 6616,
      "##hil": 6617,
      "##ius": 6618,
      "##ise": 6619,
      "Futsal": 6620,
      "Him": 6621,
      "key": 6622,
      "##dal": 6623,
      "ED": 6624,
      "Pt": 6625,
      "##DP": 6626,
      "##song": 6627,
      "Space": 6628,
      "232": 6629,
      "263": 6630,
      "##nzo": 6631,
      "site": 6632,
      "##vet": 6633,
      "##zia": 6634,
      "Maka": 6635,
      "Focus": 6636,
      "##yri": 6637,
      "##ulo": 6638,
      "Java": 6639,
      "loc": 6640,
      "av": 6641,
      "##UE": 6642,
      "Grab": 6643,
      "##end": 6644,
      "Pablo": 6645,
      "##made": 6646,
      "##anja": 6647,
      "##mol": 6648,
      "173": 6649,
      "##ari": 6650,
      "##achi": 6651,
      "Lou": 6652,
      "Duca": 6653,
      "Adriano": 6654,
      "Athens": 6655,
      "##ved": 6656,
      "218": 6657,
      "##ndro": 6658,
      "##ppen": 6659,
      "##DE": 6660,
      "##idi": 6661,
      "DK": 6662,
      "maxi": 6663,
      "Hamburg": 6664,
      "Turbo": 6665,
      "##dam": 6666,
      "Index": 6667,
      "##vel": 6668,
      "##stan": 6669,
      "Ces": 6670,
      "Gene": 6671,
      "680": 6672,
      "FS": 6673,
      "182": 6674,
      "Sudan": 6675,
      "Brighton": 6676,
      "Kenny": 6677,
      "Civic": 6678,
      "Dot": 6679,
      "##she": 6680,
      "Bremen": 6681,
      "hem": 6682,
      "##cus": 6683,
      "Batman": 6684,
      "Bond": 6685,
      "Olivier": 6686,
      "VM": 6687,
      "##kkonen": 6688,
      "##eun": 6689,
      "##bé": 6690,
      "##că": 6691,
      "Sep": 6692,
      "##tl": 6693,
      "##ass": 6694,
      "##ulin": 6695,
      "##fas": 6696,
      "Som": 6697,
      "hybrid": 6698,
      "ze": 6699,
      "Sad": 6700,
      "Francis": 6701,
      "Km": 6702,
      "##uli": 6703,
      "##time": 6704,
      "State": 6705,
      "Tomas": 6706,
      "##lash": 6707,
      "campu": 6708,
      "mod": 6709,
      "Carol": 6710,
      "master": 6711,
      "Laura": 6712,
      "##NB": 6713,
      "Jet": 6714,
      "Magic": 6715,
      "dock": 6716,
      "262": 6717,
      "your": 6718,
      "Speed": 6719,
      "##rack": 6720,
      "IR": 6721,
      "Indian": 6722,
      "Marcus": 6723,
      "Una": 6724,
      "##kim": 6725,
      "425": 6726,
      "186": 6727,
      "##ors": 6728,
      "##cket": 6729,
      "Sunday": 6730,
      "##Net": 6731,
      "cop": 6732,
      "238": 6733,
      "Sem": 6734,
      "Photo": 6735,
      "Fabian": 6736,
      "over": 6737,
      "##lade": 6738,
      "Nico": 6739,
      "177": 6740,
      "##cay": 6741,
      "Joker": 6742,
      "Trend": 6743,
      "##tsu": 6744,
      "Phelps": 6745,
      "UK": 6746,
      "nn": 6747,
      "review": 6748,
      "##rp": 6749,
      "##dra": 6750,
      "Fun": 6751,
      "151": 6752,
      "##je": 6753,
      "##wat": 6754,
      "Dominic": 6755,
      "sie": 6756,
      "pm": 6757,
      "##ione": 6758,
      "##atti": 6759,
      "Palm": 6760,
      "British": 6761,
      "Education": 6762,
      "##ize": 6763,
      "MY": 6764,
      "##NF": 6765,
      "EF": 6766,
      "Christina": 6767,
      "wo": 6768,
      "##hib": 6769,
      "MX": 6770,
      "##iko": 6771,
      "##bol": 6772,
      "Pinto": 6773,
      "Massachusetts": 6774,
      "ls": 6775,
      "##yt": 6776,
      "Four": 6777,
      "##ines": 6778,
      "Sec": 6779,
      "Carter": 6780,
      "Week": 6781,
      "Knight": 6782,
      "Linux": 6783,
      "Opera": 6784,
      "Nicole": 6785,
      "Fury": 6786,
      "1250": 6787,
      "##GP": 6788,
      "Toy": 6789,
      "##PG": 6790,
      "Blanc": 6791,
      "opera": 6792,
      "Petr": 6793,
      "NBC": 6794,
      "Christopher": 6795,
      "##yr": 6796,
      "Té": 6797,
      "Bey": 6798,
      "ante": 6799,
      "1024": 6800,
      "Zoom": 6801,
      "Hills": 6802,
      "Khmer": 6803,
      "Paolo": 6804,
      "font": 6805,
      "Coco": 6806,
      "##ili": 6807,
      "stream": 6808,
      "Sense": 6809,
      "Tommy": 6810,
      "Ice": 6811,
      "Info": 6812,
      "Watson": 6813,
      "Wembley": 6814,
      "ds": 6815,
      "##sg": 6816,
      "760": 6817,
      "##bec": 6818,
      "768": 6819,
      "Lock": 6820,
      "Rihanna": 6821,
      "Rui": 6822,
      "Jar": 6823,
      "##cà": 6824,
      "##org": 6825,
      "Lane": 6826,
      "Kris": 6827,
      "Honor": 6828,
      "##jao": 6829,
      "##ashi": 6830,
      "272": 6831,
      "Down": 6832,
      "##UR": 6833,
      "##bot": 6834,
      "Gol": 6835,
      "amo": 6836,
      "##mpi": 6837,
      "Oregon": 6838,
      "Ann": 6839,
      "##vir": 6840,
      "Explorer": 6841,
      "Main": 6842,
      "##eed": 6843,
      "1946": 6844,
      "Anton": 6845,
      "##kas": 6846,
      "##bek": 6847,
      "##hão": 6848,
      "187": 6849,
      "##ono": 6850,
      "##ule": 6851,
      "Borussia": 6852,
      "##cl": 6853,
      "Western": 6854,
      "Emily": 6855,
      "Stefano": 6856,
      "##bien": 6857,
      "##lut": 6858,
      "##oti": 6859,
      "CX": 6860,
      "Pure": 6861,
      "Jej": 6862,
      "Parker": 6863,
      "Gay": 6864,
      "Little": 6865,
      "Lindsay": 6866,
      "mart": 6867,
      "##kon": 6868,
      "193": 6869,
      "ali": 6870,
      "Cie": 6871,
      "##orce": 6872,
      "##aj": 6873,
      "##mot": 6874,
      "710": 6875,
      "FF": 6876,
      "tau": 6877,
      "Jr": 6878,
      "level": 6879,
      "188": 6880,
      "##chung": 6881,
      "##đu": 6882,
      "Lauren": 6883,
      "kai": 6884,
      "##lac": 6885,
      "##xus": 6886,
      "##eth": 6887,
      "Middlesbrough": 6888,
      "##age": 6889,
      "##jder": 6890,
      "##ras": 6891,
      "inter": 6892,
      "Jam": 6893,
      "##azi": 6894,
      "##tini": 6895,
      "##tics": 6896,
      "##lio": 6897,
      "V6": 6898,
      "VII": 6899,
      "Francois": 6900,
      "##lain": 6901,
      "Boat": 6902,
      "NSA": 6903,
      "Bolton": 6904,
      "##sel": 6905,
      "Sapporo": 6906,
      "1949": 6907,
      "boss": 6908,
      "201": 6909,
      "intel": 6910,
      "##iche": 6911,
      "Guillaume": 6912,
      "##cun": 6913,
      "##ury": 6914,
      "##orn": 6915,
      "##aye": 6916,
      "##git": 6917,
      "è": 6918,
      "233": 6919,
      "##vina": 6920,
      "ole": 6921,
      "Hodgson": 6922,
      "345": 6923,
      "##rre": 6924,
      "Hotel": 6925,
      "Douglas": 6926,
      "Thunder": 6927,
      "Pet": 6928,
      "535": 6929,
      "Tennis": 6930,
      "172": 6931,
      "##uh": 6932,
      "231": 6933,
      "##dit": 6934,
      "Hewitt": 6935,
      "Tat": 6936,
      "##UM": 6937,
      "##uke": 6938,
      "Ira": 6939,
      "Formosa": 6940,
      "##eln": 6941,
      "Jets": 6942,
      "##bt": 6943,
      "243": 6944,
      "Tong": 6945,
      "Trust": 6946,
      "xan": 6947,
      "RC": 6948,
      "##UD": 6949,
      "##for": 6950,
      "##rao": 6951,
      "##olari": 6952,
      "Aki": 6953,
      "Solar": 6954,
      "Start": 6955,
      "##lanta": 6956,
      "Sebastian": 6957,
      "Brussels": 6958,
      "Infinity": 6959,
      "Motors": 6960,
      "##ith": 6961,
      "590": 6962,
      "##vie": 6963,
      "Control": 6964,
      "Woodward": 6965,
      "244": 6966,
      "##lil": 6967,
      "Stuttgart": 6968,
      "Inf": 6969,
      "356": 6970,
      "##xia": 6971,
      "Your": 6972,
      "Antoine": 6973,
      "AIDS": 6974,
      "Assad": 6975,
      "##mbia": 6976,
      "##ons": 6977,
      "Quo": 6978,
      "##ase": 6979,
      "nta": 6980,
      "##shu": 6981,
      "Beach": 6982,
      "pre": 6983,
      "Leon": 6984,
      "##ach": 6985,
      "##acker": 6986,
      "##rel": 6987,
      "Honduras": 6988,
      "##lis": 6989,
      "##llan": 6990,
      "Kwa": 6991,
      "##lins": 6992,
      "què": 6993,
      "Dallas": 6994,
      "Mass": 6995,
      "Boss": 6996,
      "##nov": 6997,
      "##die": 6998,
      "Moss": 6999,
      "Friday": 7000,
      "Yen": 7001,
      "##PR": 7002,
      "Julia": 7003,
      "Cyrus": 7004,
      "Denis": 7005,
      "Gonzalez": 7006,
      "jail": 7007,
      "DVB": 7008,
      "##rid": 7009,
      "Sud": 7010,
      "##kamp": 7011,
      "Bavaria": 7012,
      "##AF": 7013,
      "1050": 7014,
      "##word": 7015,
      "349": 7016,
      "##orp": 7017,
      "Cloud": 7018,
      "Tunisia": 7019,
      "##OW": 7020,
      "##ult": 7021,
      "Kid": 7022,
      "##imes": 7023,
      "Pos": 7024,
      "Mikhail": 7025,
      "Lincoln": 7026,
      "id": 7027,
      "##chie": 7028,
      "##uf": 7029,
      "599": 7030,
      "moto": 7031,
      "##rma": 7032,
      "Catalunya": 7033,
      "Vogue": 7034,
      "too": 7035,
      "Body": 7036,
      "mara": 7037,
      "##ahi": 7038,
      "##vio": 7039,
      "Tito": 7040,
      "Bradley": 7041,
      "Way": 7042,
      "Limited": 7043,
      "Venice": 7044,
      "##tec": 7045,
      "Are": 7046,
      "Girls": 7047,
      "Charlton": 7048,
      "LGBT": 7049,
      "Sean": 7050,
      "##ming": 7051,
      "rai": 7052,
      "435": 7053,
      "##rac": 7054,
      "XII": 7055,
      "Kennedy": 7056,
      "Craig": 7057,
      "##hir": 7058,
      "##his": 7059,
      "##sie": 7060,
      "Taliban": 7061,
      "Computer": 7062,
      "GE": 7063,
      "##tour": 7064,
      "Vista": 7065,
      "##dder": 7066,
      "##bury": 7067,
      "##lé": 7068,
      "Milo": 7069,
      "Dora": 7070,
      "##iki": 7071,
      "Ou": 7072,
      "##pea": 7073,
      "##hwa": 7074,
      "Valle": 7075,
      "##cor": 7076,
      "feet": 7077,
      "Romeo": 7078,
      "Algeria": 7079,
      "Huang": 7080,
      "##tsen": 7081,
      "Ms": 7082,
      "are": 7083,
      "Vila": 7084,
      "Ek": 7085,
      "##roat": 7086,
      "Of": 7087,
      "Thompson": 7088,
      "##bil": 7089,
      "Pack": 7090,
      "match": 7091,
      "Kahn": 7092,
      "Canton": 7093,
      "Lily": 7094,
      "Dance": 7095,
      "##wn": 7096,
      "tj": 7097,
      "Water": 7098,
      "458": 7099,
      "Range": 7100,
      "pt": 7101,
      "##iron": 7102,
      "Alice": 7103,
      "salon": 7104,
      "##vis": 7105,
      "##pat": 7106,
      "Dennis": 7107,
      "1952": 7108,
      "Fish": 7109,
      "Nice": 7110,
      "311": 7111,
      "279": 7112,
      "DD": 7113,
      "261": 7114,
      "Boom": 7115,
      "Data": 7116,
      "skin": 7117,
      "##bro": 7118,
      "##get": 7119,
      "Def": 7120,
      "Didier": 7121,
      "##mps": 7122,
      "Arabia": 7123,
      "##bb": 7124,
      "PK": 7125,
      "181": 7126,
      "##wit": 7127,
      "Final": 7128,
      "Kristen": 7129,
      "Armenia": 7130,
      "Tyson": 7131,
      "Derby": 7132,
      "Clark": 7133,
      "##het": 7134,
      "Syn": 7135,
      "Lima": 7136,
      "Rosberg": 7137,
      "##bii": 7138,
      "mono": 7139,
      "##has": 7140,
      "sv": 7141,
      "Ninja": 7142,
      "amin": 7143,
      "Rao": 7144,
      "Age": 7145,
      "##lass": 7146,
      "##igo": 7147,
      "##ele": 7148,
      "Lev": 7149,
      "##pac": 7150,
      "gara": 7151,
      "Firefox": 7152,
      "##ientu": 7153,
      "##att": 7154,
      "##gha": 7155,
      "##etto": 7156,
      "Pennsylvania": 7157,
      "Research": 7158,
      "##yli": 7159,
      "##site": 7160,
      "718": 7161,
      "##lov": 7162,
      "Drive": 7163,
      "MK": 7164,
      "251": 7165,
      "##izo": 7166,
      "##fal": 7167,
      "blu": 7168,
      "ep": 7169,
      "##lle": 7170,
      "##nesia": 7171,
      "ur": 7172,
      "##sca": 7173,
      "##nom": 7174,
      "##egu": 7175,
      "##anda": 7176,
      "##uka": 7177,
      "241": 7178,
      "Did": 7179,
      "Castro": 7180,
      "Adams": 7181,
      "Uganda": 7182,
      "niem": 7183,
      "Ohio": 7184,
      "##rba": 7185,
      "Gran": 7186,
      "Lake": 7187,
      "Franco": 7188,
      "Channel": 7189,
      "Now": 7190,
      "##MM": 7191,
      "##ING": 7192,
      "##yi": 7193,
      "Dead": 7194,
      "##kushima": 7195,
      "##hme": 7196,
      "##ment": 7197,
      "Bros": 7198,
      "Amb": 7199,
      "Paz": 7200,
      "##Ẳ": 7201,
      "##oya": 7202,
      "##atar": 7203,
      "Trap": 7204,
      "Liberty": 7205,
      "##enal": 7206,
      "##EG": 7207,
      "385": 7208,
      "##ago": 7209,
      "##ugh": 7210,
      "seria": 7211,
      "sem": 7212,
      "ada": 7213,
      "Vision": 7214,
      "##WD": 7215,
      "Cross": 7216,
      "303": 7217,
      "##sor": 7218,
      "event": 7219,
      "white": 7220,
      "##ill": 7221,
      "Cheng": 7222,
      "Wolf": 7223,
      "##ics": 7224,
      "Sale": 7225,
      "Warner": 7226,
      "363": 7227,
      "ặ": 7228,
      "##bid": 7229,
      "##rah": 7230,
      "##WC": 7231,
      "Colorado": 7232,
      "##ogo": 7233,
      "Warriors": 7234,
      "Macau": 7235,
      "840": 7236,
      "Hon": 7237,
      "##tis": 7238,
      "Liam": 7239,
      "Ghost": 7240,
      "##edu": 7241,
      "Bara": 7242,
      "Tina": 7243,
      "236": 7244,
      "##ila": 7245,
      "System": 7246,
      "PlayStation": 7247,
      "Shea": 7248,
      "Care": 7249,
      "Gordon": 7250,
      "##doria": 7251,
      "sì": 7252,
      "##uet": 7253,
      "Abraham": 7254,
      "335": 7255,
      "##had": 7256,
      "Act": 7257,
      "Challenge": 7258,
      "269": 7259,
      "Rachel": 7260,
      "##cast": 7261,
      "##ena": 7262,
      "##band": 7263,
      "Kind": 7264,
      "Andres": 7265,
      "Spurs": 7266,
      "Ved": 7267,
      "253": 7268,
      "Walk": 7269,
      "M3": 7270,
      "cort": 7271,
      "Holly": 7272,
      "Shang": 7273,
      "Fort": 7274,
      "Luca": 7275,
      "MAC": 7276,
      "257": 7277,
      "Atom": 7278,
      "para": 7279,
      "Ricardo": 7280,
      "Rama": 7281,
      "KK": 7282,
      "TNT": 7283,
      "M6": 7284,
      "##ida": 7285,
      "Santiago": 7286,
      "Male": 7287,
      "dy": 7288,
      "Tv": 7289,
      "306": 7290,
      "DB": 7291,
      "##WA": 7292,
      "##posite": 7293,
      "twee": 7294,
      "Webb": 7295,
      "361": 7296,
      "Hunt": 7297,
      "##opp": 7298,
      "##bou": 7299,
      "##kel": 7300,
      "Blanco": 7301,
      "Alexa": 7302,
      "Madonna": 7303,
      "Fowler": 7304,
      "##hje": 7305,
      "##yy": 7306,
      "Het": 7307,
      "oz": 7308,
      "##ring": 7309,
      "Mans": 7310,
      "Dome": 7311,
      "Solo": 7312,
      "364": 7313,
      "##Wh": 7314,
      "Force": 7315,
      "Management": 7316,
      "##ive": 7317,
      "Bis": 7318,
      "##uff": 7319,
      "##NO": 7320,
      "##ici": 7321,
      "##hra": 7322,
      "##low": 7323,
      "Kiss": 7324,
      "##run": 7325,
      "Congo": 7326,
      "class": 7327,
      "##rea": 7328,
      "Rim": 7329,
      "Finals": 7330,
      "NY": 7331,
      "##rome": 7332,
      "Cairo": 7333,
      "office": 7334,
      "##oes": 7335,
      "Barry": 7336,
      "313": 7337,
      "Katie": 7338,
      "Kyle": 7339,
      "##ires": 7340,
      "margin": 7341,
      "775": 7342,
      "980": 7343,
      "ninja": 7344,
      "Sex": 7345,
      "name": 7346,
      "##obi": 7347,
      "Beth": 7348,
      "bos": 7349,
      "Dur": 7350,
      "hún": 7351,
      "Dean": 7352,
      "Eng": 7353,
      "Ace": 7354,
      "##lore": 7355,
      "JC": 7356,
      "Singh": 7357,
      "##icky": 7358,
      "##bes": 7359,
      "word": 7360,
      "##ota": 7361,
      "Guinea": 7362,
      "##tner": 7363,
      "##lose": 7364,
      "Russell": 7365,
      "Pete": 7366,
      "##UL": 7367,
      "##lal": 7368,
      "E1": 7369,
      "395": 7370,
      "dual": 7371,
      "vert": 7372,
      "Ellis": 7373,
      "413": 7374,
      "India": 7375,
      "Jersey": 7376,
      "Maguire": 7377,
      "Pit": 7378,
      "288": 7379,
      "Seven": 7380,
      "##ars": 7381,
      "237": 7382,
      "##cate": 7383,
      "Brand": 7384,
      "Janeiro": 7385,
      "Muhammad": 7386,
      "##gle": 7387,
      "##dou": 7388,
      "Irina": 7389,
      "##via": 7390,
      "##fr": 7391,
      "Icon": 7392,
      "Milne": 7393,
      "##jet": 7394,
      "ML": 7395,
      "353": 7396,
      "Radio": 7397,
      "Potter": 7398,
      "##pire": 7399,
      "Press": 7400,
      "Hard": 7401,
      "Pico": 7402,
      "##puter": 7403,
      "Dieu": 7404,
      "##pon": 7405,
      "##like": 7406,
      "ich": 7407,
      "##mou": 7408,
      "Raja": 7409,
      "1948": 7410,
      "Arm": 7411,
      "Naomi": 7412,
      "##uer": 7413,
      "Igor": 7414,
      "Gonzalo": 7415,
      "Wolfsburg": 7416,
      "seal": 7417,
      "286": 7418,
      "king": 7419,
      "fe": 7420,
      "##poli": 7421,
      "Kay": 7422,
      "##lona": 7423,
      "##ball": 7424,
      "Jordi": 7425,
      "EPA": 7426,
      "##gui": 7427,
      "##ann": 7428,
      "##oft": 7429,
      "Heat": 7430,
      "Eye": 7431,
      "Pink": 7432,
      "##sfield": 7433,
      "dient": 7434,
      "##rem": 7435,
      "##GE": 7436,
      "##life": 7437,
      "Lukas": 7438,
      "Torino": 7439,
      "258": 7440,
      "##eba": 7441,
      "##tje": 7442,
      "Coupe": 7443,
      "Estonia": 7444,
      "FDA": 7445,
      "Brent": 7446,
      "##mal": 7447,
      "Arch": 7448,
      "Kari": 7449,
      "Charlotte": 7450,
      "##trin": 7451,
      "Vega": 7452,
      "1947": 7453,
      "Kings": 7454,
      "196": 7455,
      "det": 7456,
      "##oss": 7457,
      "##zin": 7458,
      "1951": 7459,
      "Seattle": 7460,
      "Nur": 7461,
      "1150": 7462,
      "Perry": 7463,
      "##gin": 7464,
      "Stewart": 7465,
      "Yokohama": 7466,
      "Haiti": 7467,
      "802": 7468,
      "##nea": 7469,
      "English": 7470,
      "Cell": 7471,
      "G1": 7472,
      "Dana": 7473,
      "Armstrong": 7474,
      "268": 7475,
      "##nch": 7476,
      "555": 7477,
      "##pec": 7478,
      "Bryan": 7479,
      "Bent": 7480,
      "Award": 7481,
      "Financial": 7482,
      "Hana": 7483,
      "kilo": 7484,
      "Ahmed": 7485,
      "##onic": 7486,
      "shock": 7487,
      "740": 7488,
      "##dar": 7489,
      "##gger": 7490,
      "888": 7491,
      "Technology": 7492,
      "504": 7493,
      "##erm": 7494,
      "Taj": 7495,
      "Halloween": 7496,
      "Lightning": 7497,
      "##nova": 7498,
      "##LC": 7499,
      "##zni": 7500,
      "Michigan": 7501,
      "##esh": 7502,
      "##roa": 7503,
      "##aya": 7504,
      "Via": 7505,
      "Amanda": 7506,
      "Beat": 7507,
      "Nelson": 7508,
      "Stefan": 7509,
      "alpha": 7510,
      "##fon": 7511,
      "war": 7512,
      "##bona": 7513,
      "Aquino": 7514,
      "Graham": 7515,
      "Raj": 7516,
      "##vt": 7517,
      "##iss": 7518,
      "Wright": 7519,
      "light": 7520,
      "007": 7521,
      "Was": 7522,
      "ị": 7523,
      "##ska": 7524,
      "Mendes": 7525,
      "Talent": 7526,
      "Hernandez": 7527,
      "Luxembourg": 7528,
      "1942": 7529,
      "##raca": 7530,
      "##FF": 7531,
      "rs": 7532,
      "soa": 7533,
      "Hans": 7534,
      "Walter": 7535,
      "##enko": 7536,
      "##oen": 7537,
      "##zzi": 7538,
      "Stanley": 7539,
      "##anti": 7540,
      "##ilo": 7541,
      "XIII": 7542,
      "Ted": 7543,
      "##taka": 7544,
      "March": 7545,
      "Britney": 7546,
      "Simone": 7547,
      "Alaska": 7548,
      "##hum": 7549,
      "Bella": 7550,
      "Boys": 7551,
      "Bernard": 7552,
      "##yron": 7553,
      "Jeremy": 7554,
      "274": 7555,
      "Istanbul": 7556,
      "##put": 7557,
      "##gam": 7558,
      "690": 7559,
      "active": 7560,
      "2025": 7561,
      "Helen": 7562,
      "Grant": 7563,
      "Grace": 7564,
      "Too": 7565,
      "Kis": 7566,
      "##gent": 7567,
      "Travel": 7568,
      "Katy": 7569,
      "Ada": 7570,
      "259": 7571,
      "##zs": 7572,
      "media": 7573,
      "Security": 7574,
      "##entino": 7575,
      "Wolves": 7576,
      "jam": 7577,
      "##care": 7578,
      "##gram": 7579,
      "fede": 7580,
      "Gaming": 7581,
      "Bir": 7582,
      "##dien": 7583,
      "##nuo": 7584,
      "##dem": 7585,
      "##sat": 7586,
      "route": 7587,
      "osi": 7588,
      "ami": 7589,
      "##more": 7590,
      "##bet": 7591,
      "Manhattan": 7592,
      "##sley": 7593,
      "Mars": 7594,
      "Isaac": 7595,
      "nar": 7596,
      "text": 7597,
      "Ruby": 7598,
      "##pach": 7599,
      "watch": 7600,
      "281": 7601,
      "KP": 7602,
      "283": 7603,
      "##tings": 7604,
      "Karen": 7605,
      "##zma": 7606,
      "Neil": 7607,
      "##ters": 7608,
      "type": 7609,
      "Ward": 7610,
      "357": 7611,
      "Abd": 7612,
      "Marcos": 7613,
      "Mohammed": 7614,
      "Hitler": 7615,
      "hak": 7616,
      "267": 7617,
      "Mona": 7618,
      "Mae": 7619,
      "concert": 7620,
      "Larry": 7621,
      "Clear": 7622,
      "##tie": 7623,
      "##OX": 7624,
      "Future": 7625,
      "##sr": 7626,
      "Wars": 7627,
      "Bala": 7628,
      "##once": 7629,
      "Colin": 7630,
      "Tol": 7631,
      "##iel": 7632,
      "Lion": 7633,
      "Einstein": 7634,
      "##uve": 7635,
      "##ogia": 7636,
      "Holmes": 7637,
      "Atlanta": 7638,
      "##vat": 7639,
      "322": 7640,
      "##eck": 7641,
      "276": 7642,
      "format": 7643,
      "Cesar": 7644,
      "##SM": 7645,
      "293": 7646,
      "##gur": 7647,
      "##bc": 7648,
      "##lob": 7649,
      "enzyme": 7650,
      "##eva": 7651,
      "Story": 7652,
      "##wel": 7653,
      "##tre": 7654,
      "was": 7655,
      "omega": 7656,
      "##PM": 7657,
      "##hara": 7658,
      "Here": 7659,
      "Cham": 7660,
      "mid": 7661,
      "Compact": 7662,
      "Lille": 7663,
      "Alberto": 7664,
      "Harris": 7665,
      "194": 7666,
      "901": 7667,
      "has": 7668,
      "Rosa": 7669,
      "Mol": 7670,
      "Tango": 7671,
      "Powell": 7672,
      "MHz": 7673,
      "##uen": 7674,
      "##una": 7675,
      "Ethiopia": 7676,
      "##nock": 7677,
      "Santi": 7678,
      "Lens": 7679,
      "Austin": 7680,
      "Francesco": 7681,
      "##ghed": 7682,
      "Lua": 7683,
      "ballad": 7684,
      "ộ": 7685,
      "##drat": 7686,
      "##mael": 7687,
      "Damascus": 7688,
      "way": 7689,
      "##tana": 7690,
      "##hire": 7691,
      "##war": 7692,
      "##ony": 7693,
      "##idas": 7694,
      "ử": 7695,
      "Shen": 7696,
      "##chau": 7697,
      "266": 7698,
      "Take": 7699,
      "pel": 7700,
      "##vent": 7701,
      "br": 7702,
      "ce": 7703,
      "308": 7704,
      "001": 7705,
      "##over": 7706,
      "##pili": 7707,
      "##iden": 7708,
      "Jamaica": 7709,
      "##mei": 7710,
      "##vd": 7711,
      "##lap": 7712,
      "Sprint": 7713,
      "##dio": 7714,
      "Wong": 7715,
      "##hv": 7716,
      "##BB": 7717,
      "bug": 7718,
      "##bella": 7719,
      "##feld": 7720,
      "luka": 7721,
      "##ily": 7722,
      "197": 7723,
      "##cia": 7724,
      "##sur": 7725,
      "skill": 7726,
      "Fletcher": 7727,
      "Bold": 7728,
      "Brun": 7729,
      "papa": 7730,
      "Pasteur": 7731,
      "##mis": 7732,
      "475": 7733,
      "##cano": 7734,
      "##cera": 7735,
      "##gd": 7736,
      "302": 7737,
      "##world": 7738,
      "Kylie": 7739,
      "Baltic": 7740,
      "##avia": 7741,
      "Josh": 7742,
      "Guy": 7743,
      "1120": 7744,
      "##wl": 7745,
      "##mas": 7746,
      "367": 7747,
      "366": 7748,
      "##ull": 7749,
      "##lum": 7750,
      "##ple": 7751,
      "manga": 7752,
      "Holdings": 7753,
      "Arizona": 7754,
      "Miguel": 7755,
      "##nect": 7756,
      "##hman": 7757,
      "Side": 7758,
      "Lega": 7759,
      "##zur": 7760,
      "##eman": 7761,
      "Petersburg": 7762,
      "Alfred": 7763,
      "1944": 7764,
      "##mem": 7765,
      "sur": 7766,
      "##nik": 7767,
      "Thierry": 7768,
      "KG": 7769,
      "##iso": 7770,
      "282": 7771,
      "Step": 7772,
      "mafia": 7773,
      "Palermo": 7774,
      "Fall": 7775,
      "##bong": 7776,
      "Sama": 7777,
      "én": 7778,
      "Carey": 7779,
      "Noah": 7780,
      "ini": 7781,
      "##kra": 7782,
      "Ans": 7783,
      "Eddie": 7784,
      "Lyn": 7785,
      "298": 7786,
      "##ont": 7787,
      "##yer": 7788,
      "Stars": 7789,
      "312": 7790,
      "Dev": 7791,
      "Gill": 7792,
      "analog": 7793,
      "##mba": 7794,
      "##mbu": 7795,
      "Abbas": 7796,
      "Blair": 7797,
      "##usi": 7798,
      "##alt": 7799,
      "##aman": 7800,
      "Boris": 7801,
      "come": 7802,
      "##pri": 7803,
      "##ado": 7804,
      "Corp": 7805,
      "Moody": 7806,
      "##stein": 7807,
      "##vien": 7808,
      "How": 7809,
      "##och": 7810,
      "##fram": 7811,
      "Everest": 7812,
      "Chuck": 7813,
      "Earth": 7814,
      "271": 7815,
      "##yk": 7816,
      "358": 7817,
      "Airways": 7818,
      "Rogers": 7819,
      "Massa": 7820,
      "B3": 7821,
      "##oji": 7822,
      "VIII": 7823,
      "Yuri": 7824,
      "Mauricio": 7825,
      "rights": 7826,
      "##ade": 7827,
      "Abi": 7828,
      "MiG": 7829,
      "Susan": 7830,
      "##gó": 7831,
      "##mang": 7832,
      "item": 7833,
      "Sirius": 7834,
      "Buy": 7835,
      "Dion": 7836,
      "Marcel": 7837,
      "gameplay": 7838,
      "##zeg": 7839,
      "sám": 7840,
      "vivo": 7841,
      "##dr": 7842,
      "910": 7843,
      "##amer": 7844,
      "##lina": 7845,
      "##tov": 7846,
      "Donna": 7847,
      "Joel": 7848,
      "Software": 7849,
      "COM": 7850,
      "pl": 7851,
      "tip": 7852,
      "284": 7853,
      "karate": 7854,
      "Manga": 7855,
      "Odessa": 7856,
      "salah": 7857,
      "##kita": 7858,
      "nah": 7859,
      "##hod": 7860,
      "##por": 7861,
      "##erson": 7862,
      "##vka": 7863,
      "Form": 7864,
      "dog": 7865,
      "##cet": 7866,
      "##ttu": 7867,
      "##enti": 7868,
      "Kod": 7869,
      "Sharon": 7870,
      "Band": 7871,
      "##duc": 7872,
      "##ika": 7873,
      "805": 7874,
      "770": 7875,
      "Meg": 7876,
      "2050": 7877,
      "Two": 7878,
      "##osa": 7879,
      "XIX": 7880,
      "Nesta": 7881,
      "##sm": 7882,
      "grand": 7883,
      "##air": 7884,
      "##tto": 7885,
      "page": 7886,
      "Timothy": 7887,
      "Law": 7888,
      "##titi": 7889,
      "will": 7890,
      "##ầ": 7891,
      "##ort": 7892,
      "341": 7893,
      "Tas": 7894,
      "##oud": 7895,
      "Pere": 7896,
      "Prince": 7897,
      "Update": 7898,
      "ER": 7899,
      "##kie": 7900,
      "##mbo": 7901,
      "##gus": 7902,
      "Bologna": 7903,
      "##leo": 7904,
      "##lani": 7905,
      "##ein": 7906,
      "hele": 7907,
      "Mathieu": 7908,
      "reserved": 7909,
      "cf": 7910,
      "##core": 7911,
      "##ree": 7912,
      "##zar": 7913,
      "Page": 7914,
      "Vienna": 7915,
      "Gunnar": 7916,
      "Academy": 7917,
      "Dave": 7918,
      "##kley": 7919,
      "Moses": 7920,
      "799": 7921,
      "##vali": 7922,
      "##pine": 7923,
      "Jazz": 7924,
      "##agi": 7925,
      "615": 7926,
      "##bă": 7927,
      "##pes": 7928,
      "##aga": 7929,
      "1x": 7930,
      "Rey": 7931,
      "##hor": 7932,
      "Teen": 7933,
      "Shakira": 7934,
      "Leipzig": 7935,
      "Corte": 7936,
      "808": 7937,
      "2A": 7938,
      "##ett": 7939,
      "##sul": 7940,
      "##abad": 7941,
      "##oten": 7942,
      "Bosnia": 7943,
      "401": 7944,
      "##but": 7945,
      "##esi": 7946,
      "##wen": 7947,
      "Lotus": 7948,
      "##rot": 7949,
      "STAR": 7950,
      "Azerbaijan": 7951,
      "Kanye": 7952,
      "Vos": 7953,
      "##tream": 7954,
      "##YS": 7955,
      "##mini": 7956,
      "Gray": 7957,
      "jazz": 7958,
      "##eda": 7959,
      "Linda": 7960,
      "Gut": 7961,
      "##ots": 7962,
      "699": 7963,
      "Bing": 7964,
      "Hugh": 7965,
      "Harley": 7966,
      "jump": 7967,
      "##yd": 7968,
      "Kawasaki": 7969,
      "307": 7970,
      "Og": 7971,
      "Taxi": 7972,
      "##tos": 7973,
      "##nate": 7974,
      "Evan": 7975,
      "Queensland": 7976,
      "Chamberlain": 7977,
      "Cinema": 7978,
      "##hta": 7979,
      "##gea": 7980,
      "##ams": 7981,
      "##shin": 7982,
      "Carvalho": 7983,
      "Rene": 7984,
      "Foundation": 7985,
      "Sandro": 7986,
      "##ava": 7987,
      "##mpa": 7988,
      "Johansson": 7989,
      "Ellen": 7990,
      "668": 7991,
      "Dom": 7992,
      "champions": 7993,
      "Eiffel": 7994,
      "##tins": 7995,
      "JA": 7996,
      "Hamid": 7997,
      "Robinson": 7998,
      "Leclerc": 7999,
      "Rojo": 8000,
      "Hut": 8001,
      "##nak": 8002,
      "Felipe": 8003,
      "head": 8004,
      "860": 8005,
      "##ust": 8006,
      "##pot": 8007,
      "green": 8008,
      "GPL": 8009,
      "Marshall": 8010,
      "Jaguar": 8011,
      "##ress": 8012,
      "##iri": 8013,
      "Feng": 8014,
      "##uar": 8015,
      "Slovenia": 8016,
      "Scarlett": 8017,
      "Aero": 8018,
      "##val": 8019,
      "289": 8020,
      "##ggi": 8021,
      "E3": 8022,
      "##ile": 8023,
      "##imet": 8024,
      "Studios": 8025,
      "Titanic": 8026,
      "##fra": 8027,
      "ESPN": 8028,
      "Winter": 8029,
      "Ryu": 8030,
      "Ost": 8031,
      "##tá": 8032,
      "737": 8033,
      "##nko": 8034,
      "Universal": 8035,
      "1938": 8036,
      "Nation": 8037,
      "power": 8038,
      "1350": 8039,
      "043": 8040,
      "Australian": 8041,
      "##nich": 8042,
      "319": 8043,
      "##oat": 8044,
      "##code": 8045,
      "##moto": 8046,
      "##xt": 8047,
      "Mt": 8048,
      "Megan": 8049,
      "675": 8050,
      "##dat": 8051,
      "632": 8052,
      "Sie": 8053,
      "##ega": 8054,
      "Matteo": 8055,
      "Mann": 8056,
      "Silicon": 8057,
      "##tang": 8058,
      "PB": 8059,
      "UFO": 8060,
      "Beta": 8061,
      "list": 8062,
      "next": 8063,
      "278": 8064,
      "##heim": 8065,
      "835": 8066,
      "##hotep": 8067,
      "Athletic": 8068,
      "Shan": 8069,
      "fr": 8070,
      "Avatar": 8071,
      "Drop": 8072,
      "##eran": 8073,
      "Daryl": 8074,
      "Halle": 8075,
      "##hou": 8076,
      "##load": 8077,
      "Hub": 8078,
      "Joan": 8079,
      "1937": 8080,
      "Race": 8081,
      "With": 8082,
      "Wim": 8083,
      "##uto": 8084,
      "Logo": 8085,
      "stereo": 8086,
      "Job": 8087,
      "Stanford": 8088,
      "Wilder": 8089,
      "##hun": 8090,
      "##lf": 8091,
      "##fit": 8092,
      "1943": 8093,
      "##gro": 8094,
      "Rory": 8095,
      "Schwarz": 8096,
      "Stones": 8097,
      "326": 8098,
      "##zon": 8099,
      "Tea": 8100,
      "##ngi": 8101,
      "Jerry": 8102,
      "1941": 8103,
      "Marina": 8104,
      "Adele": 8105,
      "##aard": 8106,
      "Glenn": 8107,
      "Deep": 8108,
      "garage": 8109,
      "##eke": 8110,
      "855": 8111,
      "Herb": 8112,
      "Abdullah": 8113,
      "Lance": 8114,
      "Tal": 8115,
      "328": 8116,
      "##oki": 8117,
      "##asa": 8118,
      "##mine": 8119,
      "Becker": 8120,
      "Bud": 8121,
      "uranium": 8122,
      "845": 8123,
      "Lord": 8124,
      "Maroc": 8125,
      "Foster": 8126,
      "2a": 8127,
      "##eco": 8128,
      "D2": 8129,
      "Lab": 8130,
      "Aur": 8131,
      "##ntado": 8132,
      "Albania": 8133,
      "##DM": 8134,
      "##OD": 8135,
      "Save": 8136,
      "##roni": 8137,
      "Rico": 8138,
      "IRA": 8139,
      "Aires": 8140,
      "##vesi": 8141,
      "##ckt": 8142,
      "Special": 8143,
      "Moreno": 8144,
      "Union": 8145,
      "Robbie": 8146,
      "Jesse": 8147,
      "##Ỷ": 8148,
      "287": 8149,
      "##fat": 8150,
      "Kali": 8151,
      "##bara": 8152,
      "oder": 8153,
      "Skin": 8154,
      "Joy": 8155,
      "lei": 8156,
      "Collins": 8157,
      "##eron": 8158,
      "Spot": 8159,
      "Sierra": 8160,
      "##oha": 8161,
      "##ryl": 8162,
      "##ksa": 8163,
      "Turner": 8164,
      "CBS": 8165,
      "Somalia": 8166,
      "Mallorca": 8167,
      "Barr": 8168,
      "plu": 8169,
      "##gne": 8170,
      "Pearl": 8171,
      "Maha": 8172,
      "ICC": 8173,
      "##nj": 8174,
      "mam": 8175,
      "fast": 8176,
      "Search": 8177,
      "351": 8178,
      "Just": 8179,
      "Kelantan": 8180,
      "Sergey": 8181,
      "Storm": 8182,
      "825": 8183,
      "##amat": 8184,
      "##edo": 8185,
      "Cadillac": 8186,
      "Aid": 8187,
      "336": 8188,
      "##sis": 8189,
      "Tag": 8190,
      "Timo": 8191,
      "Ashton": 8192,
      "leggi": 8193,
      "##ste": 8194,
      "359": 8195,
      "##rui": 8196,
      "think": 8197,
      "##eli": 8198,
      "##lele": 8199,
      "Schneider": 8200,
      "MLS": 8201,
      "##tax": 8202,
      "Bright": 8203,
      "##kat": 8204,
      "Lorenzo": 8205,
      "Mill": 8206,
      "Tesla": 8207,
      "Buenos": 8208,
      "firm": 8209,
      "Multi": 8210,
      "UE": 8211,
      "Nicholas": 8212,
      "Gunn": 8213,
      "Square": 8214,
      "Self": 8215,
      "Cafe": 8216,
      "##SP": 8217,
      "les": 8218,
      "Julie": 8219,
      "Godzilla": 8220,
      "Coleman": 8221,
      "Ranger": 8222,
      "##borough": 8223,
      "##sko": 8224,
      "Kitty": 8225,
      "##own": 8226,
      "362": 8227,
      "kr": 8228,
      "##AA": 8229,
      "number": 8230,
      "##lee": 8231,
      "##cua": 8232,
      "Vancouver": 8233,
      "England": 8234,
      "##lat": 8235,
      "Monster": 8236,
      "Player": 8237,
      "tae": 8238,
      "Baker": 8239,
      "##uture": 8240,
      "Peugeot": 8241,
      "Derek": 8242,
      "323": 8243,
      "Jenny": 8244,
      "Iz": 8245,
      "ks": 8246,
      "ang": 8247,
      "##lg": 8248,
      "daun": 8249,
      "##nson": 8250,
      "Bailly": 8251,
      "Thin": 8252,
      "405": 8253,
      "338": 8254,
      "##ià": 8255,
      "Bose": 8256,
      "Whitney": 8257,
      "Loi": 8258,
      "Santo": 8259,
      "point": 8260,
      "254": 8261,
      "Zhu": 8262,
      "##roll": 8263,
      "##tag": 8264,
      "##Õ": 8265,
      "##shan": 8266,
      "Valley": 8267,
      "##kke": 8268,
      "Netflix": 8269,
      "Philadelphia": 8270,
      "##bee": 8271,
      "294": 8272,
      "##oom": 8273,
      "lat": 8274,
      "Baza": 8275,
      "Last": 8276,
      "##llen": 8277,
      "##liv": 8278,
      "316": 8279,
      "Nes": 8280,
      "Brothers": 8281,
      "Phillips": 8282,
      "Lucy": 8283,
      "##bauer": 8284,
      "##cant": 8285,
      "##stone": 8286,
      "Barbara": 8287,
      "Frozen": 8288,
      "Guinness": 8289,
      "gra": 8290,
      "##vai": 8291,
      "Candy": 8292,
      "##kai": 8293,
      "##lex": 8294,
      "314": 8295,
      "Ltd": 8296,
      "Greg": 8297,
      "Henrik": 8298,
      "384": 8299,
      "Cry": 8300,
      "Pai": 8301,
      "##red": 8302,
      "Sid": 8303,
      "riu": 8304,
      "##tol": 8305,
      "1939": 8306,
      "##rman": 8307,
      "Olivia": 8308,
      "##nett": 8309,
      "Kimi": 8310,
      "kung": 8311,
      "352": 8312,
      "Taiwan": 8313,
      "##pal": 8314,
      "##ness": 8315,
      "Doo": 8316,
      "##ymer": 8317,
      "Riverside": 8318,
      "Electronics": 8319,
      "Margaret": 8320,
      "Science": 8321,
      "this": 8322,
      "ã": 8323,
      "Lucky": 8324,
      "277": 8325,
      "970": 8326,
      "##late": 8327,
      "##oka": 8328,
      "Doctor": 8329,
      "##rge": 8330,
      "##hyl": 8331,
      "Otto": 8332,
      "Bert": 8333,
      "Proc": 8334,
      "Who": 8335,
      "##etz": 8336,
      "Goldman": 8337,
      "More": 8338,
      "##los": 8339,
      "Kobe": 8340,
      "329": 8341,
      "##hal": 8342,
      "Royce": 8343,
      "##sing": 8344,
      "##ess": 8345,
      "pH": 8346,
      "Nach": 8347,
      "Class": 8348,
      "Hof": 8349,
      "##mund": 8350,
      "191": 8351,
      "Tiffany": 8352,
      "Mouse": 8353,
      "##ator": 8354,
      "Manager": 8355,
      "Diesel": 8356,
      "Rijk": 8357,
      "sharp": 8358,
      "309": 8359,
      "##oro": 8360,
      "GMT": 8361,
      "##china": 8362,
      "Illinois": 8363,
      "ACC": 8364,
      "##mor": 8365,
      "oka": 8366,
      "##cil": 8367,
      "Tell": 8368,
      "Hughes": 8369,
      "1936": 8370,
      "Trip": 8371,
      "##uda": 8372,
      "##chard": 8373,
      "Ricci": 8374,
      "##fn": 8375,
      "##zuki": 8376,
      "##oot": 8377,
      "Tee": 8378,
      "##ary": 8379,
      "Lil": 8380,
      "Marine": 8381,
      "Turn": 8382,
      "321": 8383,
      "bro": 8384,
      "##dli": 8385,
      "##nder": 8386,
      "##lux": 8387,
      "##tif": 8388,
      "##isa": 8389,
      "##kova": 8390,
      "Stein": 8391,
      "Jerusalem": 8392,
      "##its": 8393,
      "Rice": 8394,
      "Adobe": 8395,
      "##ijs": 8396,
      "467": 8397,
      "##endi": 8398,
      "bor": 8399,
      "432": 8400,
      "Amber": 8401,
      "Fin": 8402,
      "Naga": 8403,
      "Hindu": 8404,
      "Faro": 8405,
      "Nancy": 8406,
      "tos": 8407,
      "Cyber": 8408,
      "##pper": 8409,
      "##roc": 8410,
      "mirror": 8411,
      "##uid": 8412,
      "##oso": 8413,
      "Hudson": 8414,
      "Joachim": 8415,
      "Gibbs": 8416,
      "Part": 8417,
      "tom": 8418,
      "Sunny": 8419,
      "##nta": 8420,
      "Roll": 8421,
      "Angola": 8422,
      "Sophie": 8423,
      "Bye": 8424,
      "##wu": 8425,
      "515": 8426,
      "##pia": 8427,
      "Usa": 8428,
      "##pid": 8429,
      "Hank": 8430,
      "Isa": 8431,
      "##onne": 8432,
      "Hulk": 8433,
      "Turkmenistan": 8434,
      "##quia": 8435,
      "502": 8436,
      "##tuan": 8437,
      "ỡ": 8438,
      "##eas": 8439,
      "##ral": 8440,
      "Wonder": 8441,
      "##mond": 8442,
      "##ington": 8443,
      "Concept": 8444,
      "##loga": 8445,
      "Primera": 8446,
      "CSKA": 8447,
      "Bab": 8448,
      "##igi": 8449,
      "##ret": 8450,
      "##ews": 8451,
      "##ports": 8452,
      "Siberia": 8453,
      "Murphy": 8454,
      "Arc": 8455,
      "##oko": 8456,
      "415": 8457,
      "B5": 8458,
      "##tli": 8459,
      "Aviv": 8460,
      "Screen": 8461,
      "Sv": 8462,
      "fon": 8463,
      "##lau": 8464,
      "334": 8465,
      "Richter": 8466,
      "Sheffield": 8467,
      "Gaza": 8468,
      "KV": 8469,
      "taka": 8470,
      "005": 8471,
      "##rir": 8472,
      "##rr": 8473,
      "1850": 8474,
      "##aba": 8475,
      "##sman": 8476,
      "##yev": 8477,
      "Lok": 8478,
      "Days": 8479,
      "IX": 8480,
      "##udet": 8481,
      "Wednesday": 8482,
      "Christine": 8483,
      "Fel": 8484,
      "##voi": 8485,
      "##ike": 8486,
      "339": 8487,
      "##cro": 8488,
      "This": 8489,
      "##yor": 8490,
      "Heine": 8491,
      "Delta": 8492,
      "Inst": 8493,
      "Talk": 8494,
      "console": 8495,
      "Wild": 8496,
      "Anand": 8497,
      "Ottoman": 8498,
      "aja": 8499,
      "318": 8500,
      "##cat": 8501,
      "surface": 8502,
      "##xide": 8503,
      "Film": 8504,
      "champion": 8505,
      "Safari": 8506,
      "Melissa": 8507,
      "vol": 8508,
      "##dau": 8509,
      "##nma": 8510,
      "##zel": 8511,
      "342": 8512,
      "##kun": 8513,
      "Shield": 8514,
      "Sarkozy": 8515,
      "##cud": 8516,
      "demo": 8517,
      "Nina": 8518,
      "Bloom": 8519,
      "##phe": 8520,
      "##tation": 8521,
      "##ect": 8522,
      "Map": 8523,
      "Nun": 8524,
      "Caroline": 8525,
      "Sasha": 8526,
      "mah": 8527,
      "890": 8528,
      "##lp": 8529,
      "##par": 8530,
      "##ift": 8531,
      "Sofia": 8532,
      "##glia": 8533,
      "##dang": 8534,
      "Sophia": 8535,
      "##cce": 8536,
      "##rber": 8537,
      "Steel": 8538,
      "Nations": 8539,
      "##rch": 8540,
      "nova": 8541,
      "##tree": 8542,
      "##ous": 8543,
      "##CD": 8544,
      "Akira": 8545,
      "Mumbai": 8546,
      "##uch": 8547,
      "343": 8548,
      "Ez": 8549,
      "Electric": 8550,
      "##zze": 8551,
      "292": 8552,
      "Ton": 8553,
      "Zara": 8554,
      "##ndr": 8555,
      "Mariah": 8556,
      "MF": 8557,
      "##rli": 8558,
      "##fice": 8559,
      "Jacques": 8560,
      "Alexandria": 8561,
      "575": 8562,
      "1110": 8563,
      "Colo": 8564,
      "Mana": 8565,
      "Legend": 8566,
      "Pas": 8567,
      "##ffin": 8568,
      "stick": 8569,
      "##ág": 8570,
      "jog": 8571,
      "465": 8572,
      "Cent": 8573,
      "Ela": 8574,
      "Citizens": 8575,
      "European": 8576,
      "Indiana": 8577,
      "ATC": 8578,
      "Alam": 8579,
      "##lever": 8580,
      "Woman": 8581,
      "##kach": 8582,
      "Diva": 8583,
      "Soul": 8584,
      "Blatt": 8585,
      "##sol": 8586,
      "##yla": 8587,
      "Nara": 8588,
      "Unicode": 8589,
      "##ife": 8590,
      "##hand": 8591,
      "said": 8592,
      "Zhao": 8593,
      "##tein": 8594,
      "##yde": 8595,
      "ime": 8596,
      "Movie": 8597,
      "##rak": 8598,
      "Pentium": 8599,
      "crossover": 8600,
      "Corporation": 8601,
      "Slavia": 8602,
      "##dian": 8603,
      "Russ": 8604,
      "Portsmouth": 8605,
      "##bani": 8606,
      "Straits": 8607,
      "327": 8608,
      "##loc": 8609,
      "Off": 8610,
      "445": 8611,
      "Zhou": 8612,
      "Cast": 8613,
      "Keith": 8614,
      "Chrysler": 8615,
      "HR": 8616,
      "##IH": 8617,
      "Food": 8618,
      "DF": 8619,
      "Boca": 8620,
      "Lead": 8621,
      "##hei": 8622,
      "BY": 8623,
      "find": 8624,
      "1440": 8625,
      "Penn": 8626,
      "Forest": 8627,
      "##hart": 8628,
      "Detroit": 8629,
      "Reed": 8630,
      "tih": 8631,
      "422": 8632,
      "485": 8633,
      "##former": 8634,
      "Hector": 8635,
      "Sunrise": 8636,
      "Hermes": 8637,
      "Sparta": 8638,
      "Girona": 8639,
      "324": 8640,
      "Hell": 8641,
      "##namn": 8642,
      "Excel": 8643,
      "Report": 8644,
      "Sign": 8645,
      "dra": 8646,
      "have": 8647,
      "025": 8648,
      "boom": 8649,
      "##itz": 8650,
      "Math": 8651,
      "##ket": 8652,
      "Hala": 8653,
      "tur": 8654,
      "##hro": 8655,
      "Hunter": 8656,
      "Alla": 8657,
      "McCarthy": 8658,
      "Sachs": 8659,
      "Vatican": 8660,
      "County": 8661,
      "Code": 8662,
      "##uba": 8663,
      "panel": 8664,
      "1220": 8665,
      "Reno": 8666,
      "Reyes": 8667,
      "Maryland": 8668,
      "Check": 8669,
      "Rich": 8670,
      "##cas": 8671,
      "##bah": 8672,
      "Sandra": 8673,
      "Elvis": 8674,
      "##jung": 8675,
      "Fra": 8676,
      "##tva": 8677,
      "447": 8678,
      "##rine": 8679,
      "Cele": 8680,
      "D8": 8681,
      "Hathaway": 8682,
      "Newton": 8683,
      "Mead": 8684,
      "electron": 8685,
      "dui": 8686,
      "##VO": 8687,
      "sut": 8688,
      "Rodrigo": 8689,
      "Coro": 8690,
      "505": 8691,
      "shoot": 8692,
      "nm": 8693,
      "##ubi": 8694,
      "Grey": 8695,
      "Glen": 8696,
      "##leve": 8697,
      "Feyenoord": 8698,
      "pis": 8699,
      "kick": 8700,
      "Hip": 8701,
      "Cola": 8702,
      "##yth": 8703,
      "##rmon": 8704,
      "Fund": 8705,
      "##rigo": 8706,
      "Dawn": 8707,
      "Samba": 8708,
      "##sc": 8709,
      "##dà": 8710,
      "##vă": 8711,
      "##ivi": 8712,
      "Ring": 8713,
      "Century": 8714,
      "##fero": 8715,
      "Zimbabwe": 8716,
      "##ulis": 8717,
      "##ord": 8718,
      "AAA": 8719,
      "##bica": 8720,
      "332": 8721,
      "##vita": 8722,
      "##illa": 8723,
      "##fil": 8724,
      "Consumer": 8725,
      "Napoleon": 8726,
      "Marin": 8727,
      "Kaplan": 8728,
      "Blind": 8729,
      "bob": 8730,
      "pat": 8731,
      "##kut": 8732,
      "Service": 8733,
      "917": 8734,
      "Tie": 8735,
      "Moldova": 8736,
      "Point": 8737,
      "Montreal": 8738,
      "Becken": 8739,
      "Hop": 8740,
      "##sus": 8741,
      "Factor": 8742,
      "Maxim": 8743,
      "##yong": 8744,
      "##hanol": 8745,
      "Alma": 8746,
      "Liberia": 8747,
      "shot": 8748,
      "Halo": 8749,
      "##kao": 8750,
      "##king": 8751,
      "vinta": 8752,
      "Apollo": 8753,
      "Diaz": 8754,
      "Women": 8755,
      "Monroe": 8756,
      "##nter": 8757,
      "##oul": 8758,
      "Yes": 8759,
      "412": 8760,
      "Hz": 8761,
      "##stal": 8762,
      "##buri": 8763,
      "Larsson": 8764,
      "Bernardo": 8765,
      "##det": 8766,
      "##èu": 8767,
      "##dre": 8768,
      "##hut": 8769,
      "##tham": 8770,
      "416": 8771,
      "##bom": 8772,
      "Zero": 8773,
      "same": 8774,
      "Petrov": 8775,
      "nie": 8776,
      "##ings": 8777,
      "inches": 8778,
      "##rai": 8779,
      "asp": 8780,
      "Wiki": 8781,
      "Rudi": 8782,
      "Brisbane": 8783,
      "Kosovo": 8784,
      "Foley": 8785,
      "##ký": 8786,
      "369": 8787,
      "##hair": 8788,
      "Sci": 8789,
      "NM": 8790,
      "##FS": 8791,
      "second": 8792,
      "##ight": 8793,
      "Od": 8794,
      "##kam": 8795,
      "service": 8796,
      "Pavel": 8797,
      "Idea": 8798,
      "##ivo": 8799,
      "open": 8800,
      "Monica": 8801,
      "Desa": 8802,
      "Ina": 8803,
      "Independent": 8804,
      "Floyd": 8805,
      "bank": 8806,
      "aml": 8807,
      "##phen": 8808,
      "Company": 8809,
      "Toma": 8810,
      "##bul": 8811,
      "Kent": 8812,
      "Mohammad": 8813,
      "RAW": 8814,
      "Andreas": 8815,
      "Norman": 8816,
      "Sonic": 8817,
      "vit": 8818,
      "wat": 8819,
      "##far": 8820,
      "Five": 8821,
      "Walt": 8822,
      "Bengal": 8823,
      "ballet": 8824,
      "Maggie": 8825,
      "761": 8826,
      "Lor": 8827,
      "##oca": 8828,
      "##gge": 8829,
      "Bend": 8830,
      "bak": 8831,
      "Hie": 8832,
      "##aza": 8833,
      "Billy": 8834,
      "##rab": 8835,
      "Zoe": 8836,
      "Kill": 8837,
      "Bordeaux": 8838,
      "Macedonia": 8839,
      "Soft": 8840,
      "501": 8841,
      "Paradise": 8842,
      "##igu": 8843,
      "##til": 8844,
      "##tig": 8845,
      "##gil": 8846,
      "Kap": 8847,
      "Tanzania": 8848,
      "317": 8849,
      "##wind": 8850,
      "Athena": 8851,
      "##gal": 8852,
      "Spy": 8853,
      "Credit": 8854,
      "Devi": 8855,
      "Kurt": 8856,
      "Bez": 8857,
      "##uden": 8858,
      "##essa": 8859,
      "his": 8860,
      "pub": 8861,
      "476": 8862,
      "##udo": 8863,
      "##av": 8864,
      "##acki": 8865,
      "Expo": 8866,
      "Elle": 8867,
      "##vares": 8868,
      "basa": 8869,
      "Tuo": 8870,
      "442": 8871,
      "ỳ": 8872,
      "trans": 8873,
      "Carbon": 8874,
      "##water": 8875,
      "Claire": 8876,
      "Datuk": 8877,
      "Cut": 8878,
      "OR": 8879,
      "##sle": 8880,
      "##col": 8881,
      "Virgin": 8882,
      "##dda": 8883,
      "889": 8884,
      "Sei": 8885,
      "##pti": 8886,
      "Head": 8887,
      "Liz": 8888,
      "Grande": 8889,
      "Poor": 8890,
      "Giovanni": 8891,
      "knockout": 8892,
      "Dua": 8893,
      "1450": 8894,
      "Mama": 8895,
      "pé": 8896,
      "ea": 8897,
      "433": 8898,
      "##tami": 8899,
      "Zach": 8900,
      "##meri": 8901,
      "Raymond": 8902,
      "Chad": 8903,
      "Must": 8904,
      "Motion": 8905,
      "Fiesta": 8906,
      "Most": 8907,
      "##aby": 8908,
      "297": 8909,
      "##yst": 8910,
      "##rst": 8911,
      "386": 8912,
      "##dis": 8913,
      "Wireless": 8914,
      "Assistant": 8915,
      "Brooks": 8916,
      "Jonas": 8917,
      "##bó": 8918,
      "##jd": 8919,
      "##was": 8920,
      "##DH": 8921,
      "Jake": 8922,
      "Juni": 8923,
      "##ssu": 8924,
      "Harvey": 8925,
      "Money": 8926,
      "Dakota": 8927,
      "Rebecca": 8928,
      "##mari": 8929,
      "lt": 8930,
      "##dor": 8931,
      "Neptune": 8932,
      "Hilton": 8933,
      "Ono": 8934,
      "Gravity": 8935,
      "1202": 8936,
      "Ima": 8937,
      "oli": 8938,
      "##inda": 8939,
      "##sou": 8940,
      "##lad": 8941,
      "##AX": 8942,
      "uz": 8943,
      "##gat": 8944,
      "##wear": 8945,
      "Kao": 8946,
      "##pion": 8947,
      "##ener": 8948,
      "##dale": 8949,
      "Carles": 8950,
      "Rex": 8951,
      "Malta": 8952,
      "Coffee": 8953,
      "635": 8954,
      "##nor": 8955,
      "337": 8956,
      "915": 8957,
      "##chev": 8958,
      "##ulli": 8959,
      "Georgi": 8960,
      "371": 8961,
      "Panda": 8962,
      "##vit": 8963,
      "street": 8964,
      "##ato": 8965,
      "April": 8966,
      "Cindy": 8967,
      "2560": 8968,
      "rating": 8969,
      "Viva": 8970,
      "Copenhagen": 8971,
      "Ses": 8972,
      "HBO": 8973,
      "final": 8974,
      "Date": 8975,
      "##uni": 8976,
      "LIVE": 8977,
      "##park": 8978,
      "rende": 8979,
      "Guam": 8980,
      "Huffington": 8981,
      "hab": 8982,
      "##tani": 8983,
      "291": 8984,
      "##zym": 8985,
      "Romero": 8986,
      "Discovery": 8987,
      "Mayer": 8988,
      "soo": 8989,
      "fer": 8990,
      "Under": 8991,
      "##down": 8992,
      "##nec": 8993,
      "Stockholm": 8994,
      "##esse": 8995,
      "Place": 8996,
      "##kt": 8997,
      "bio": 8998,
      "##ZA": 8999,
      "Guo": 9000,
      "1750": 9001,
      "Ami": 9002,
      "Monday": 9003,
      "##nne": 9004,
      "Valentino": 9005,
      "##use": 9006,
      "##lls": 9007,
      "Bastia": 9008,
      "Bhutan": 9009,
      "##bok": 9010,
      "##hri": 9011,
      "pati": 9012,
      "##tom": 9013,
      "##nol": 9014,
      "Gate": 9015,
      "Davies": 9016,
      "Jacob": 9017,
      "##kla": 9018,
      "Kick": 9019,
      "bas": 9020,
      "585": 9021,
      "##uut": 9022,
      "Calvin": 9023,
      "##stin": 9024,
      "##udd": 9025,
      "##riy": 9026,
      "Village": 9027,
      "Lambert": 9028,
      "##lton": 9029,
      "Darren": 9030,
      "Milk": 9031,
      "rot": 9032,
      "Fly": 9033,
      "Ní": 9034,
      "##rmo": 9035,
      "Vida": 9036,
      "Salvador": 9037,
      "ster": 9038,
      "Hui": 9039,
      "##jay": 9040,
      "##abo": 9041,
      "002": 9042,
      "##wy": 9043,
      "rich": 9044,
      "2nd": 9045,
      "##rita": 9046,
      "Roc": 9047,
      "##igan": 9048,
      "Luz": 9049,
      "Cisco": 9050,
      "Alexandre": 9051,
      "##sic": 9052,
      "Kung": 9053,
      "sul": 9054,
      "##illy": 9055,
      "Oracle": 9056,
      "Champ": 9057,
      "##nici": 9058,
      "##nai": 9059,
      "Rosie": 9060,
      "##lm": 9061,
      "382": 9062,
      "##ntu": 9063,
      "##mom": 9064,
      "##note": 9065,
      "ệ": 9066,
      "##ogen": 9067,
      "Genoa": 9068,
      "Vor": 9069,
      "Ethan": 9070,
      "##beau": 9071,
      "##ifa": 9072,
      "Switch": 9073,
      "918": 9074,
      "Simpson": 9075,
      "##mad": 9076,
      "##wall": 9077,
      "Henri": 9078,
      "##saw": 9079,
      "Brooke": 9080,
      "reti": 9081,
      "##blad": 9082,
      "##pre": 9083,
      "##yama": 9084,
      "API": 9085,
      "Orion": 9086,
      "Geo": 9087,
      "##town": 9088,
      "##eil": 9089,
      "Hope": 9090,
      "Palmer": 9091,
      "CCD": 9092,
      "379": 9093,
      "##vol": 9094,
      "##bull": 9095,
      "##pers": 9096,
      "##ese": 9097,
      "##rato": 9098,
      "José": 9099,
      "Franklin": 9100,
      "Rosso": 9101,
      "##een": 9102,
      "kan": 9103,
      "walk": 9104,
      "Cherry": 9105,
      "##tù": 9106,
      "Sandy": 9107,
      "Stella": 9108,
      "Tyler": 9109,
      "Rahman": 9110,
      "545": 9111,
      "##anu": 9112,
      "trend": 9113,
      "##nza": 9114,
      "Bristol": 9115,
      "Anderlecht": 9116,
      "612": 9117,
      "ant": 9118,
      "##nge": 9119,
      "##cchi": 9120,
      "Year": 9121,
      "1932": 9122,
      "##chent": 9123,
      "Liban": 9124,
      "372": 9125,
      "##ias": 9126,
      "##veen": 9127,
      "347": 9128,
      "Tian": 9129,
      "##rich": 9130,
      "##vsky": 9131,
      "##ardi": 9132,
      "##smo": 9133,
      "940": 9134,
      "404": 9135,
      "pot": 9136,
      "348": 9137,
      "ret": 9138,
      "Bare": 9139,
      "##rush": 9140,
      "##ature": 9141,
      "368": 9142,
      "##mma": 9143,
      "##gina": 9144,
      "Mani": 9145,
      "##mio": 9146,
      "Coast": 9147,
      "Mundo": 9148,
      "Rolling": 9149,
      "Musa": 9150,
      "Hoffman": 9151,
      "Pizza": 9152,
      "Alien": 9153,
      "##tou": 9154,
      "jong": 9155,
      "506": 9156,
      "Nie": 9157,
      "296": 9158,
      "goal": 9159,
      "##nat": 9160,
      "Utah": 9161,
      "##sikt": 9162,
      "Nielsen": 9163,
      "Slave": 9164,
      "Mason": 9165,
      "Zaragoza": 9166,
      "##yra": 9167,
      "Dynamo": 9168,
      "##tat": 9169,
      "EN": 9170,
      "Smile": 9171,
      "See": 9172,
      "##cope": 9173,
      "##istics": 9174,
      "Wikipedia": 9175,
      "Ernesto": 9176,
      "##valiers": 9177,
      "##chua": 9178,
      "##ette": 9179,
      "Country": 9180,
      "Records": 9181,
      "Aron": 9182,
      "##cut": 9183,
      "899": 9184,
      "Oklahoma": 9185,
      "Hongkong": 9186,
      "Marilyn": 9187,
      "##eti": 9188,
      "June": 9189,
      "Gent": 9190,
      "FX": 9191,
      "Rise": 9192,
      "Charter": 9193,
      "slogan": 9194,
      "Dei": 9195,
      "Islam": 9196,
      "Mustang": 9197,
      "Hague": 9198,
      "Spears": 9199,
      "quota": 9200,
      "Chiang": 9201,
      "Coppa": 9202,
      "##ott": 9203,
      "Lag": 9204,
      "Maxi": 9205,
      "##rali": 9206,
      "##rado": 9207,
      "México": 9208,
      "##sz": 9209,
      "##bble": 9210,
      "Cream": 9211,
      "##lien": 9212,
      "##dad": 9213,
      "Gara": 9214,
      "Kirk": 9215,
      "Pictures": 9216,
      "##gest": 9217,
      "Sultan": 9218,
      "Lithuania": 9219,
      "##entes": 9220,
      "AZ": 9221,
      "##alu": 9222,
      "##hium": 9223,
      "Nag": 9224,
      "Boer": 9225,
      "Years": 9226,
      "##toa": 9227,
      "456": 9228,
      "##lab": 9229,
      "soan": 9230,
      "Pie": 9231,
      "Summer": 9232,
      "##imi": 9233,
      "452": 9234,
      "build": 9235,
      "##lah": 9236,
      "Soon": 9237,
      "Graphics": 9238,
      "Giuseppe": 9239,
      "Empire": 9240,
      "Dick": 9241,
      "##lme": 9242,
      "Barth": 9243,
      "penal": 9244,
      "##pse": 9245,
      "##tim": 9246,
      "##ries": 9247,
      "441": 9248,
      "Advanced": 9249,
      "##yak": 9250,
      "Stephanie": 9251,
      "Swan": 9252,
      "Investment": 9253,
      "Jiang": 9254,
      "Heer": 9255,
      "Khalid": 9256,
      "uni": 9257,
      "foods": 9258,
      "Echo": 9259,
      "503": 9260,
      "##êr": 9261,
      "##als": 9262,
      "Jens": 9263,
      "##rei": 9264,
      "Nino": 9265,
      "Watt": 9266,
      "Metropolitan": 9267,
      "MG": 9268,
      "##sme": 9269,
      "Omega": 9270,
      "track": 9271,
      "Aria": 9272,
      "##vé": 9273,
      "Casa": 9274,
      "Hunger": 9275,
      "SMA": 9276,
      "##md": 9277,
      "mari": 9278,
      "Ola": 9279,
      "##chis": 9280,
      "Berry": 9281,
      "Gao": 9282,
      "Orange": 9283,
      "Elena": 9284,
      "Pavilion": 9285,
      "Medi": 9286,
      "##hana": 9287,
      "lea": 9288,
      "yu": 9289,
      "1650": 9290,
      "SW": 9291,
      "Mono": 9292,
      "##ange": 9293,
      "Illa": 9294,
      "Brescia": 9295,
      "Hybrid": 9296,
      "##mose": 9297,
      "Mito": 9298,
      "##ych": 9299,
      "Number": 9300,
      "Roberts": 9301,
      "Easy": 9302,
      "Sensa": 9303,
      "Continental": 9304,
      "Leone": 9305,
      "##rna": 9306,
      "##zai": 9307,
      "Oil": 9308,
      "Never": 9309,
      "419": 9310,
      "##zem": 9311,
      "##yte": 9312,
      "Emmanuel": 9313,
      "Ariel": 9314,
      "Barra": 9315,
      "Dhabi": 9316,
      "##tial": 9317,
      "Hamas": 9318,
      "##hing": 9319,
      "##sua": 9320,
      "##rti": 9321,
      "stop": 9322,
      "##ation": 9323,
      "##bian": 9324,
      "##kir": 9325,
      "Battle": 9326,
      "##dba": 9327,
      "Saw": 9328,
      "##cend": 9329,
      "##riz": 9330,
      "##ză": 9331,
      "Vene": 9332,
      "Stuart": 9333,
      "iso": 9334,
      "637": 9335,
      "##uga": 9336,
      "bol": 9337,
      "003": 9338,
      "649": 9339,
      "##love": 9340,
      "##rau": 9341,
      "Bau": 9342,
      "##nsk": 9343,
      "Tribe": 9344,
      "buy": 9345,
      "Beau": 9346,
      "Pereira": 9347,
      "Russia": 9348,
      "Ucraina": 9349,
      "Todd": 9350,
      "##dn": 9351,
      "AJ": 9352,
      "anime": 9353,
      "##lane": 9354,
      "Mueller": 9355,
      "Robson": 9356,
      "##erti": 9357,
      "##llas": 9358,
      "##anne": 9359,
      "sel": 9360,
      "char": 9361,
      "rocket": 9362,
      "Dylan": 9363,
      "##uha": 9364,
      "Stark": 9365,
      "##ify": 9366,
      "Ing": 9367,
      "Ryder": 9368,
      "##dae": 9369,
      "Mem": 9370,
      "##alan": 9371,
      "##pico": 9372,
      "Nottingham": 9373,
      "##chny": 9374,
      "##jong": 9375,
      "946": 9376,
      "str": 9377,
      "##cak": 9378,
      "life": 9379,
      "Til": 9380,
      "##ial": 9381,
      "##rit": 9382,
      "##vest": 9383,
      "Single": 9384,
      "##rar": 9385,
      "Manor": 9386,
      "Engine": 9387,
      "EE": 9388,
      "Heath": 9389,
      "Beast": 9390,
      "Berkshire": 9391,
      "Basa": 9392,
      "##tine": 9393,
      "ONE": 9394,
      "##ism": 9395,
      "Cambodia": 9396,
      "Bron": 9397,
      "Deutsche": 9398,
      "Claude": 9399,
      "Birds": 9400,
      "##lie": 9401,
      "##lem": 9402,
      "449": 9403,
      "Annie": 9404,
      "##jun": 9405,
      "##und": 9406,
      "group": 9407,
      "Twin": 9408,
      "##ffa": 9409,
      "Stephan": 9410,
      "##rno": 9411,
      "469": 9412,
      "##ake": 9413,
      "FR": 9414,
      "402": 9415,
      "383": 9416,
      "##bad": 9417,
      "toe": 9418,
      "Blog": 9419,
      "Florence": 9420,
      "Eugene": 9421,
      "Jos": 9422,
      "Danielle": 9423,
      "Andorra": 9424,
      "429": 9425,
      "sed": 9426,
      "##egi": 9427,
      "##uus": 9428,
      "Bass": 9429,
      "##kia": 9430,
      "suit": 9431,
      "##abe": 9432,
      "##ede": 9433,
      "Mee": 9434,
      "##ames": 9435,
      "Ankara": 9436,
      "##gap": 9437,
      "444": 9438,
      "her": 9439,
      "##ddle": 9440,
      "##mét": 9441,
      "##etti": 9442,
      "Jerome": 9443,
      "Server": 9444,
      "kin": 9445,
      "##mak": 9446,
      "533": 9447,
      "##nche": 9448,
      "418": 9449,
      "##pou": 9450,
      "##ueen": 9451,
      "Gli": 9452,
      "##tur": 9453,
      "Vera": 9454,
      "Honey": 9455,
      "Missouri": 9456,
      "##zid": 9457,
      "coste": 9458,
      "Sweet": 9459,
      "##bl": 9460,
      "603": 9461,
      "Dale": 9462,
      "##yon": 9463,
      "she": 9464,
      "##ump": 9465,
      "PJ": 9466,
      "Franz": 9467,
      "##ander": 9468,
      "1929": 9469,
      "##oin": 9470,
      "495": 9471,
      "topic": 9472,
      "559": 9473,
      "fun": 9474,
      "##lii": 9475,
      "pitch": 9476,
      "##eries": 9477,
      "dij": 9478,
      "get": 9479,
      "Lili": 9480,
      "Kad": 9481,
      "##gai": 9482,
      "##tus": 9483,
      "##hid": 9484,
      "ola": 9485,
      "mass": 9486,
      "##sio": 9487,
      "423": 9488,
      "##buk": 9489,
      "1917": 9490,
      "Madison": 9491,
      "Puerto": 9492,
      "##NR": 9493,
      "389": 9494,
      "Pioneer": 9495,
      "##neri": 9496,
      "Fiat": 9497,
      "metro": 9498,
      "##nau": 9499,
      "376": 9500,
      "ach": 9501,
      "##rub": 9502,
      "##cre": 9503,
      "Marino": 9504,
      "Tennessee": 9505,
      "Minsk": 9506,
      "Fernandez": 9507,
      "Duke": 9508,
      "Role": 9509,
      "Montenegro": 9510,
      "CAD": 9511,
      "1a": 9512,
      "Noble": 9513,
      "Review": 9514,
      "##hama": 9515,
      "Yuan": 9516,
      "Patrice": 9517,
      "Oleg": 9518,
      "##tya": 9519,
      "##aster": 9520,
      "Robertson": 9521,
      "Morocco": 9522,
      "Remote": 9523,
      "Tau": 9524,
      "very": 9525,
      "col": 9526,
      "787": 9527,
      "346": 9528,
      "##eny": 9529,
      "ter": 9530,
      "Bild": 9531,
      "Institute": 9532,
      "1931": 9533,
      "##ohn": 9534,
      "Sherwood": 9535,
      "Energy": 9536,
      "##ops": 9537,
      "WM": 9538,
      "3A": 9539,
      "565": 9540,
      "ut": 9541,
      "##enn": 9542,
      "##ula": 9543,
      "AND": 9544,
      "##bita": 9545,
      "##any": 9546,
      "##zan": 9547,
      "Wanna": 9548,
      "Shark": 9549,
      "##bus": 9550,
      "Guatemala": 9551,
      "Human": 9552,
      "Reid": 9553,
      "##culus": 9554,
      "Hassan": 9555,
      "##thal": 9556,
      "Richardson": 9557,
      "Moe": 9558,
      "Sint": 9559,
      "Kot": 9560,
      "##wr": 9561,
      "##iru": 9562,
      "##ppy": 9563,
      "##ipo": 9564,
      "##TF": 9565,
      "406": 9566,
      "##show": 9567,
      "##serie": 9568,
      "Franck": 9569,
      "1934": 9570,
      "Ruben": 9571,
      "Chase": 9572,
      "##dle": 9573,
      "Trier": 9574,
      "panas": 9575,
      "1088": 9576,
      "##GO": 9577,
      "886": 9578,
      "##rul": 9579,
      "Shell": 9580,
      "Direct": 9581,
      "Alzheimer": 9582,
      "##rian": 9583,
      "##head": 9584,
      "1001": 9585,
      "##kip": 9586,
      "Não": 9587,
      "Hannah": 9588,
      "408": 9589,
      "377": 9590,
      "##isia": 9591,
      "ũ": 9592,
      "beat": 9593,
      "1935": 9594,
      "##yle": 9595,
      "##ead": 9596,
      "##sig": 9597,
      "SEC": 9598,
      "##tica": 9599,
      "playoff": 9600,
      "Major": 9601,
      "Joaquin": 9602,
      "UD": 9603,
      "Look": 9604,
      "##rones": 9605,
      "Sarawak": 9606,
      "##ction": 9607,
      "##ils": 9608,
      "##mano": 9609,
      "Dog": 9610,
      "##aly": 9611,
      "##yba": 9612,
      "Natalie": 9613,
      "Philippine": 9614,
      "Ark": 9615,
      "Minnesota": 9616,
      "Shakespeare": 9617,
      "Harrison": 9618,
      "Dwight": 9619,
      "##ocha": 9620,
      "##reen": 9621,
      "##hru": 9622,
      "##eak": 9623,
      "mir": 9624,
      "394": 9625,
      "511": 9626,
      "##coli": 9627,
      "Choice": 9628,
      "Alessandro": 9629,
      "XVI": 9630,
      "Herald": 9631,
      "Pascal": 9632,
      "Cagliari": 9633,
      "1918": 9634,
      "host": 9635,
      "##ilan": 9636,
      "##haf": 9637,
      "##nod": 9638,
      "##gang": 9639,
      "pad": 9640,
      "##som": 9641,
      "755": 9642,
      "##ioa": 9643,
      "##var": 9644,
      "Mauro": 9645,
      "##dote": 9646,
      "Bow": 9647,
      "Jared": 9648,
      "##lasi": 9649,
      "439": 9650,
      "##wal": 9651,
      "##mien": 9652,
      "##smine": 9653,
      "house": 9654,
      "344": 9655,
      "##lei": 9656,
      "##ctor": 9657,
      "B4": 9658,
      "##bry": 9659,
      "##pita": 9660,
      "##iard": 9661,
      "##itto": 9662,
      "Okinawa": 9663,
      "Gud": 9664,
      "##isk": 9665,
      "##round": 9666,
      "##ful": 9667,
      "##video": 9668,
      "1550": 9669,
      "##bak": 9670,
      "Ivy": 9671,
      "Dre": 9672,
      "VV": 9673,
      "##ndi": 9674,
      "##master": 9675,
      "##porte": 9676,
      "Luna": 9677,
      "Falcon": 9678,
      "##lucose": 9679,
      "##hawk": 9680,
      "Verona": 9681,
      "024": 9682,
      "Horse": 9683,
      "##fum": 9684,
      "##cell": 9685,
      "tol": 9686,
      "532": 9687,
      "##now": 9688,
      "##mus": 9689,
      "Clarke": 9690,
      "Nevada": 9691,
      "##imo": 9692,
      "board": 9693,
      "##ets": 9694,
      "##vik": 9695,
      "##cou": 9696,
      "Papa": 9697,
      "Pick": 9698,
      "Dona": 9699,
      "Strauss": 9700,
      "Sato": 9701,
      "##ory": 9702,
      "vede": 9703,
      "Det": 9704,
      "##lom": 9705,
      "##cti": 9706,
      "##tok": 9707,
      "##uil": 9708,
      "Crown": 9709,
      "Dante": 9710,
      "##lev": 9711,
      "1933": 9712,
      "##ande": 9713,
      "##sien": 9714,
      "Aleksandr": 9715,
      "##oj": 9716,
      "##rans": 9717,
      "##psi": 9718,
      "1919": 9719,
      "Aa": 9720,
      "SPD": 9721,
      "ATV": 9722,
      "Kyoto": 9723,
      "##nica": 9724,
      "Alain": 9725,
      "Edgar": 9726,
      "##yar": 9727,
      "Stalin": 9728,
      "Tbilisi": 9729,
      "461": 9730,
      "378": 9731,
      "##TER": 9732,
      "Technologies": 9733,
      "421": 9734,
      "Need": 9735,
      "##gani": 9736,
      "banner": 9737,
      "1366": 9738,
      "Yer": 9739,
      "##zov": 9740,
      "Sten": 9741,
      "##mont": 9742,
      "##BL": 9743,
      "Elsa": 9744,
      "##ater": 9745,
      "Ruiz": 9746,
      "Bridges": 9747,
      "Kentucky": 9748,
      "1666": 9749,
      "IOC": 9750,
      "sq": 9751,
      "care": 9752,
      "Holding": 9753,
      "Saturday": 9754,
      "penn": 9755,
      "##suke": 9756,
      "Spirit": 9757,
      "Cleveland": 9758,
      "Belo": 9759,
      "Thursday": 9760,
      "Radar": 9761,
      "##iah": 9762,
      "6th": 9763,
      "##aca": 9764,
      "future": 9765,
      "##odie": 9766,
      "##oll": 9767,
      "455": 9768,
      "##IX": 9769,
      "753": 9770,
      "##eur": 9771,
      "417": 9772,
      "Metal": 9773,
      "Rita": 9774,
      "##agu": 9775,
      "##meria": 9776,
      "Lars": 9777,
      "Holland": 9778,
      "Cincinnati": 9779,
      "violin": 9780,
      "##duct": 9781,
      "mit": 9782,
      "vision": 9783,
      "bike": 9784,
      "bid": 9785,
      "##sà": 9786,
      "##cter": 9787,
      "Dos": 9788,
      "Wanda": 9789,
      "Wesley": 9790,
      "##choa": 9791,
      "##uis": 9792,
      "CJ": 9793,
      "392": 9794,
      "508": 9795,
      "##ebe": 9796,
      "811": 9797,
      "##name": 9798,
      "Wind": 9799,
      "Kendall": 9800,
      "Mateo": 9801,
      "##đe": 9802,
      "##eau": 9803,
      "##ery": 9804,
      "##br": 9805,
      "music": 9806,
      "Bear": 9807,
      "Buffalo": 9808,
      "##rella": 9809,
      "Tripoli": 9810,
      "Abbey": 9811,
      "Sven": 9812,
      "Bukit": 9813,
      "Deal": 9814,
[...]
